<unk>	0
<s>	0
</s>	0
<pad>	0
▁t	-0
es	-1
▁a	-2
▁d	-3
en	-4
on	-5
ou	-6
▁p	-7
in	-8
▁c	-9
er	-10
▁l	-11
▁s	-12
▁th	-13
re	-14
is	-15
an	-16
it	-17
▁m	-18
at	-19
qu	-20
▁w	-21
ent	-22
▁the	-23
▁f	-24
▁de	-25
or	-26
▁n	-27
▁b	-28
ll	-29
et	-30
ar	-31
▁qu	-32
▁v	-33
nd	-34
▁o	-35
om	-36
▁h	-37
un	-38
as	-39
ing	-40
le	-41
ion	-42
▁to	-43
ous	-44
▁in	-45
ve	-46
▁I	-47
us	-48
▁g	-49
ic	-50
est	-51
▁of	-52
our	-53
ur	-54
il	-55
▁un	-56
ut	-57
al	-58
ro	-59
▁la	-60
▁y	-61
▁and	-62
▁le	-63
ed	-64
ai	-65
▁e	-66
▁que	-67
▁r	-68
▁j	-69
▁et	-70
te	-71
▁that	-72
ment	-73
▁en	-74
ce	-75
ant	-76
▁A	-77
ir	-78
ot	-79
▁les	-80
me	-81
os	-82
ct	-83
ch	-84
▁on	-85
▁à	-86
ais	-87
▁re	-88
▁des	-89
▁wh	-90
▁com	-91
ait	-92
▁be	-93
ons	-94
▁is	-95
ie	-96
out	-97
im	-98
▁you	-99
▁we	-100
ow	-101
▁it	-102
▁ch	-103
▁T	-104
ans	-105
id	-106
ont	-107
▁ce	-108
▁E	-109
▁tr	-110
ol	-111
ig	-112
▁C	-113
▁se	-114
▁par	-115
ers	-116
▁S	-117
if	-118
ay	-119
ere	-120
ation	-121
▁pl	-122
ét	-123
▁ha	-124
ag	-125
▁pas	-126
lle	-127
▁pro	-128
▁pour	-129
▁ne	-130
▁nous	-131
▁an	-132
que	-133
ain	-134
se	-135
▁une	-136
all	-137
ux	-138
▁vous	-139
▁qui	-140
and	-141
▁Th	-142
▁And	-143
ver	-144
▁M	-145
pp	-146
▁dans	-147
▁-	-148
▁pe	-149
▁for	-150
▁this	-151
▁st	-152
ul	-153
ri	-154
am	-155
res	-156
▁est	-157
ne	-158
▁L	-159
▁--	-160
ld	-161
op	-162
ci	-163
▁mo	-164
▁je	-165
ble	-166
ke	-167
▁do	-168
ad	-169
▁N	-170
ill	-171
▁ex	-172
ly	-173
ter	-174
▁me	-175
end	-176
▁B	-177
▁J	-178
▁W	-179
iv	-180
▁Et	-181
ac	-182
▁il	-183
au	-184
▁was	-185
ens	-186
és	-187
av	-188
▁so	-189
▁as	-190
▁su	-191
▁av	-192
▁sur	-193
ith	-194
ond	-195
ort	-196
▁not	-197
▁are	-198
ure	-199
▁du	-200
▁plus	-201
ally	-202
ist	-203
ér	-204
ap	-205
▁pr	-206
ess	-207
▁"	-208
▁have	-209
▁D	-210
▁with	-211
▁k	-212
▁go	-213
▁at	-214
▁can	-215
el	-216
▁dé	-217
▁ab	-218
▁P	-219
▁ét	-220
▁they	-221
ions	-222
▁te	-223
▁é	-224
▁all	-225
▁au	-226
ire	-227
th	-228
▁don	-229
ée	-230
imp	-231
um	-232
ien	-233
ate	-234
▁comp	-235
▁som	-236
ive	-237
ht	-238
aire	-239
use	-240
▁So	-241
ang	-242
▁con	-243
od	-244
st	-245
▁1	-246
▁or	-247
▁ave	-248
ust	-249
▁ré	-250
▁wor	-251
tre	-252
og	-253
ould	-254
ard	-255
bl	-256
▁what	-257
▁he	-258
▁fr	-259
ique	-260
▁sh	-261
▁about	-262
▁ar	-263
▁O	-264
oir	-265
ose	-266
▁li	-267
▁ma	-268
00	-269
▁Il	-270
age	-271
ère	-272
▁al	-273
▁gr	-274
ès	-275
up	-276
▁sont	-277
ine	-278
mp	-279
▁The	-280
▁fait	-281
ue	-282
▁part	-283
ies	-284
▁avec	-285
▁si	-286
ette	-287
▁my	-288
ite	-289
ight	-290
▁lo	-291
si	-292
ité	-293
urs	-294
▁fa	-295
ence	-296
▁there	-297
mes	-298
ide	-299
▁H	-300
pe	-301
ind	-302
ople	-303
▁V	-304
▁tout	-305
ors	-306
art	-307
ca	-308
ese	-309
ok	-310
ff	-311
▁We	-312
▁Je	-313
ouv	-314
▁ces	-315
▁like	-316
ici	-317
▁It	-318
▁sa	-319
ity	-320
▁people	-321
iff	-322
▁one	-323
ées	-324
▁?	-325
▁from	-326
▁comme	-327
▁:	-328
tr	-329
▁but	-330
aient	-331
▁mais	-332
able	-333
ça	-334
▁ou	-335
▁out	-336
être	-337
▁comm	-338
▁ça	-339
▁ver	-340
▁cette	-341
ars	-342
▁per	-343
▁us	-344
▁our	-345
▁vo	-346
▁app	-347
▁diff	-348
now	-349
ich	-350
▁int	-351
ques	-352
▁just	-353
ale	-354
▁faire	-355
ouve	-356
ink	-357
ace	-358
oug	-359
▁dis	-360
▁imp	-361
▁ont	-362
ab	-363
▁fe	-364
ore	-365
▁2	-366
▁cont	-367
▁know	-368
▁act	-369
oup	-370
ud	-371
▁quel	-372
▁cons	-373
her	-374
ign	-375
ance	-376
▁cr	-377
▁ent	-378
."	-379
▁thing	-380
iss	-381
▁pers	-382
cause	-383
ez	-384
ven	-385
pr	-386
ong	-387
▁Y	-388
act	-389
▁pu	-390
▁But	-391
▁them	-392
▁avons	-393
▁see	-394
▁G	-395
▁these	-396
▁Mais	-397
▁man	-398
▁exp	-399
oin	-400
▁if	-401
lo	-402
▁ye	-403
▁up	-404
▁very	-405
▁Nous	-406
ier	-407
▁think	-408
olog	-409
orm	-410
du	-411
▁aut	-412
▁R	-413
▁who	-414
▁get	-415
une	-416
ound	-417
▁cl	-418
▁co	-419
▁person	-420
ui	-421
ost	-422
▁by	-423
onde	-424
ations	-425
aut	-426
one	-427
ert	-428
ge	-429
▁going	-430
▁pre	-431
enc	-432
ême	-433
▁some	-434
▁when	-435
ays	-436
ants	-437
▁très	-438
lles	-439
▁had	-440
▁F	-441
▁more	-442
ime	-443
▁because	-444
▁peut	-445
ière	-446
▁your	-447
▁ils	-448
ult	-449
ord	-450
▁fo	-451
rai	-452
▁ph	-453
la	-454
ack	-455
▁would	-456
▁bien	-457
▁ever	-458
ten	-459
che	-460
ents	-461
▁sp	-462
ect	-463
▁chang	-464
▁were	-465
▁am	-466
aux	-467
▁sy	-468
ils	-469
éc	-470
▁their	-471
ast	-472
oi	-473
▁which	-474
▁U	-475
cc	-476
▁monde	-477
én	-478
▁look	-479
▁work	-480
▁dev	-481
pt	-482
▁how	-483
▁gens	-484
▁br	-485
▁Wh	-486
ense	-487
ress	-488
▁really	-489
ually	-490
iz	-491
ille	-492
hing	-493
ème	-494
ice	-495
▁trav	-496
▁ag	-497
▁want	-498
▁vrai	-499
are	-500
reat	-501
ction	-502
ach	-503
▁inter	-504
▁has	-505
ins	-506
▁chose	-507
▁ser	-508
▁world	-509
▁dit	-510
▁mon	-511
ours	-512
▁mar	-513
▁im	-514
▁time	-515
▁♫	-516
▁être	-517
▁here	-518
▁ta	-519
▁leur	-520
ass	-521
▁res	-522
▁grand	-523
▁dire	-524
▁then	-525
ther	-526
▁hum	-527
▁peu	-528
iques	-529
▁même	-530
ments	-531
form	-532
endre	-533
ough	-534
ise	-535
▁pouv	-536
▁You	-537
ussi	-538
vent	-539
▁In	-540
app	-541
▁Ce	-542
▁pos	-543
▁every	-544
▁This	-545
▁notre	-546
▁cela	-547
▁mill	-548
▁car	-549
itt	-550
und	-551
▁vie	-552
▁En	-553
▁ro	-554
▁«	-555
▁into	-556
▁ans	-557
▁could	-558
auc	-559
▁no	-560
▁aux	-561
▁actually	-562
les	-563
aid	-564
▁suis	-565
chn	-566
ild	-567
▁will	-568
▁La	-569
▁Le	-570
▁quand	-571
nes	-572
▁way	-573
▁où	-574
▁pass	-575
▁where	-576
▁»	-577
▁était	-578
▁déc	-579
king	-580
éd	-581
ical	-582
util	-583
▁years	-584
▁tous	-585
▁été	-586
▁mat	-587
▁now	-588
aucoup	-589
▁techn	-590
▁things	-591
onc	-592
▁other	-593
▁did	-594
▁ob	-595
▁inc	-596
▁deux	-597
ient	-598
▁Q	-599
ip	-600
ner	-601
▁aussi	-602
so	-603
▁ad	-604
▁Vous	-605
he	-606
ome	-607
▁tou	-608
cent	-609
ule	-610
▁Now	-611
ia	-612
▁quest	-613
▁somet	-614
▁vraiment	-615
▁ter	-616
oun	-617
▁fin	-618
▁beaucoup	-619
ck	-620
▁import	-621
▁They	-622
▁been	-623
ures	-624
▁Les	-625
▁donc	-626
gr	-627
lé	-628
▁parce	-629
▁son	-630
oses	-631
▁any	-632
▁mont	-633
ition	-634
▁make	-635
▁main	-636
▁Ch	-637
nées	-638
▁temp	-639
its	-640
était	-641
wo	-642
▁than	-643
orte	-644
▁happ	-645
▁On	-646
▁reg	-647
tes	-648
▁bu	-649
▁soci	-650
ces	-651
▁need	-652
▁Donc	-653
▁éc	-654
▁produ	-655
oint	-656
mer	-657
▁start	-658
▁ve	-659
ouver	-660
▁choses	-661
otre	-662
ber	-663
▁say	-664
▁right	-665
▁3	-666
▁ca	-667
li	-668
irst	-669
▁trans	-670
ertain	-671
▁dem	-672
▁jus	-673
ree	-674
▁bas	-675
▁said	-676
▁simp	-677
ade	-678
utilis	-679
▁over	-680
be	-681
ict	-682
amp	-683
▁something	-684
..	-685
▁technolog	-686
éri	-687
uch	-688
▁litt	-689
ory	-690
▁sol	-691
▁nos	-692
▁long	-693
bre	-694
▁back	-695
▁Al	-696
ru	-697
▁pet	-698
▁gen	-699
▁vou	-700
▁elle	-701
ution	-702
tenant	-703
▁those	-704
▁là	-705
▁prop	-706
▁cro	-707
ys	-708
ms	-709
ets	-710
▁voir	-711
▁ind	-712
▁env	-713
▁much	-714
▁two	-715
ivers	-716
▁rec	-717
▁Ils	-718
ife	-719
000	-720
▁mod	-721
▁got	-722
▁call	-723
▁point	-724
▁quelque	-725
ex	-726
▁differ	-727
ern	-728
▁prem	-729
ric	-730
▁first	-731
ile	-732
▁tal	-733
▁po	-734
▁nouve	-735
bles	-736
▁sec	-737
▁also	-738
▁enc	-739
▁cré	-740
▁votre	-741
▁kind	-742
▁sci	-743
▁pens	-744
ra	-745
▁lot	-746
▁commun	-747
vez	-748
▁new	-749
▁tro	-750
▁cent	-751
elle	-752
▁cap	-753
▁bo	-754
▁cour	-755
sel	-756
ante	-757
own	-758
▁enf	-759
▁little	-760
▁pol	-761
▁spe	-762
ial	-763
▁change	-764
▁K	-765
ail	-766
▁important	-767
ob	-768
▁eff	-769
esp	-770
▁mom	-771
▁gu	-772
▁mes	-773
▁she	-774
ouvez	-775
▁sav	-776
ph	-777
▁temps	-778
▁most	-779
iron	-780
▁und	-781
▁entre	-782
▁certain	-783
uis	-784
▁acc	-785
▁bon	-786
▁cor	-787
▁bet	-788
▁That	-789
ler	-790
▁fois	-791
ody	-792
gan	-793
▁plan	-794
ages	-795
ject	-796
ep	-797
▁jour	-798
▁id	-799
oc	-800
onom	-801
▁end	-802
▁différ	-803
▁probl	-804
▁pense	-805
▁sc	-806
▁only	-807
vol	-808
ick	-809
▁avait	-810
ated	-811
▁moi	-812
▁met	-813
vel	-814
▁Qu	-815
▁question	-816
int	-817
oire	-818
▁off	-819
▁sort	-820
▁voy	-821
▁rel	-822
▁vis	-823
▁comment	-824
▁ici	-825
▁even	-826
▁his	-827
▁utilis	-828
▁regard	-829
▁bl	-830
▁life	-831
▁att	-832
ues	-833
▁pouvez	-834
▁ins	-835
ros	-836
ater	-837
▁ess	-838
cher	-839
ats	-840
ase	-841
▁liv	-842
rit	-843
uc	-844
▁pourr	-845
▁nom	-846
ôt	-847
ature	-848
▁many	-849
▁Vo	-850
▁Un	-851
▁af	-852
▁mot	-853
▁pat	-854
▁different	-855
▁fam	-856
▁take	-857
▁20	-858
çon	-859
ren	-860
▁19	-861
▁arri	-862
▁5	-863
iez	-864
▁simple	-865
ank	-866
ak	-867
▁her	-868
ish	-869
rough	-870
▁mal	-871
▁He	-872
ib	-873
ves	-874
alement	-875
▁seule	-876
▁min	-877
▁Si	-878
▁good	-879
▁conf	-880
pl	-881
aires	-882
cept	-883
wn	-884
▁real	-885
▁around	-886
▁sommes	-887
erve	-888
▁personnes	-889
emp	-890
sem	-891
▁does	-892
▁moment	-893
▁down	-894
endant	-895
▁10	-896
▁non	-897
▁ide	-898
▁through	-899
▁rest	-900
▁hist	-901
ég	-902
▁rép	-903
▁bi	-904
▁There	-905
▁Alors	-906
▁publ	-907
ères	-908
▁leurs	-909
▁What	-910
▁encore	-911
▁commenc	-912
urn	-913
▁put	-914
ry	-915
▁demand	-916
▁fem	-917
aine	-918
per	-919
rer	-920
alis	-921
▁fais	-922
▁rem	-923
▁4	-924
▁coun	-925
▁ac	-926
▁show	-927
▁autre	-928
▁possi	-929
▁pays	-930
▁rés	-931
▁dont	-932
ary	-933
llement	-934
▁Par	-935
▁being	-936
tru	-937
▁gén	-938
▁inst	-939
▁prof	-940
▁use	-941
▁sign	-942
▁fl	-943
▁tell	-944
anc	-945
air	-946
ourd	-947
ts	-948
▁cha	-949
ute	-950
▁avoir	-951
ought	-952
tern	-953
▁bes	-954
ains	-955
sez	-956
arg	-957
▁façon	-958
ether	-959
aph	-960
ré	-961
ting	-962
▁travai	-963
▁happen	-964
lect	-965
▁same	-966
ual	-967
érie	-968
▁jam	-969
we	-970
erci	-971
arn	-972
▁proble	-973
quoi	-974
az	-975
▁fact	-976
ém	-977
▁design	-978
ste	-979
▁try	-980
▁environ	-981
▁besoin	-982
▁vais	-983
▁va	-984
▁vers	-985
ower	-986
▁avez	-987
▁place	-988
▁dep	-989
▁mus	-990
▁human	-991
▁juste	-992
hui	-993
▁lui	-994
▁alors	-995
iers	-996
ful	-997
imes	-998
▁come	-999
jet	-1000
▁toutes	-1001
oy	-1002
day	-1003
icul	-1004
▁maintenant	-1005
red	-1006
ope	-1007
▁sans	-1008
par	-1009
▁personne	-1010
jourd	-1011
▁voul	-1012
▁doing	-1013
▁may	-1014
old	-1015
xt	-1016
▁inf	-1017
▁let	-1018
▁Com	-1019
près	-1020
▁Af	-1021
▁Be	-1022
▁talk	-1023
pect	-1024
▁big	-1025
nent	-1026
▁cell	-1027
▁find	-1028
▁sm	-1029
▁art	-1030
nement	-1031
▁puis	-1032
em	-1033
cess	-1034
ible	-1035
▁great	-1036
ésent	-1037
igh	-1038
ris	-1039
ics	-1040
ites	-1041
▁syst	-1042
▁three	-1043
▁phot	-1044
▁di	-1045
ines	-1046
▁Pour	-1047
▁day	-1048
▁fut	-1049
ates	-1050
▁doll	-1051
ically	-1052
▁percent	-1053
iste	-1054
▁If	-1055
▁compl	-1056
▁quelques	-1057
ences	-1058
row	-1059
?"	-1060
▁rep	-1061
other	-1062
▁stud	-1063
▁inv	-1064
▁inform	-1065
▁jamais	-1066
▁syste	-1067
▁Ne	-1068
▁dec	-1069
met	-1070
ieu	-1071
▁organ	-1072
erg	-1073
▁well	-1074
▁années	-1075
▁trois	-1076
ois	-1077
ving	-1078
onn	-1079
ement	-1080
▁sem	-1081
▁sens	-1082
▁anim	-1083
▁build	-1084
thing	-1085
▁called	-1086
▁ty	-1087
▁enfants	-1088
▁conn	-1089
ète	-1090
▁tu	-1091
▁again	-1092
▁méd	-1093
▁num	-1094
ave	-1095
▁hom	-1096
alité	-1097
▁child	-1098
body	-1099
▁veux	-1100
autres	-1101
▁rais	-1102
self	-1103
erst	-1104
▁em	-1105
▁problème	-1106
▁made	-1107
▁bel	-1108
▁four	-1109
ities	-1110
▁pouvons	-1111
fore	-1112
iment	-1113
▁Well	-1114
▁moins	-1115
▁disc	-1116
illes	-1117
▁dern	-1118
jours	-1119
▁exemp	-1120
▁wom	-1121
▁pres	-1122
way	-1123
ative	-1124
▁pri	-1125
▁prob	-1126
ident	-1127
ating	-1128
ah	-1129
▁emp	-1130
▁toujours	-1131
att	-1132
ork	-1133
▁contin	-1134
rendre	-1135
▁dollars	-1136
▁learn	-1137
▁eu	-1138
▁fil	-1139
▁viv	-1140
▁imag	-1141
▁cas	-1142
▁should	-1143
née	-1144
▁particul	-1145
▁why	-1146
entre	-1147
▁seulement	-1148
ific	-1149
ious	-1150
▁own	-1151
▁dro	-1152
acc	-1153
ved	-1154
ath	-1155
▁supp	-1156
uit	-1157
▁ord	-1158
▁chaque	-1159
▁peuvent	-1160
ole	-1161
▁parler	-1162
agn	-1163
ty	-1164
ards	-1165
auv	-1166
als	-1167
▁year	-1168
▁nature	-1169
▁travaill	-1170
aines	-1171
▁ses	-1172
▁sch	-1173
▁underst	-1174
▁turn	-1175
ft	-1176
lex	-1177
erre	-1178
▁pré	-1179
▁sou	-1180
vous	-1181
▁extr	-1182
▁form	-1183
▁didn	-1184
▁hel	-1185
ool	-1186
▁pendant	-1187
ieux	-1188
▁Voici	-1189
▁after	-1190
▁feel	-1191
▁polit	-1192
▁Elle	-1193
▁cond	-1194
êtes	-1195
▁contr	-1196
▁today	-1197
▁constru	-1198
rent	-1199
▁expl	-1200
ands	-1201
▁progr	-1202
ls	-1203
▁soit	-1204
▁op	-1205
▁partie	-1206
su	-1207
▁sû	-1208
▁thought	-1209
ogr	-1210
▁started	-1211
quer	-1212
ps	-1213
▁ask	-1214
▁mean	-1215
▁exper	-1216
èmes	-1217
▁après	-1218
lopp	-1219
...	-1220
▁Thank	-1221
arch	-1222
▁idea	-1223
cer	-1224
ame	-1225
▁ven	-1226
aiss	-1227
▁sub	-1228
▁Merci	-1229
velopp	-1230
▁nombre	-1231
▁course	-1232
▁last	-1233
▁étud	-1234
▁savez	-1235
▁second	-1236
▁St	-1237
▁pris	-1238
▁its	-1239
▁creat	-1240
,000	-1241
cture	-1242
▁cult	-1243
▁autres	-1244
▁dép	-1245
ables	-1246
▁elles	-1247
▁coup	-1248
êt	-1249
▁travail	-1250
▁200	-1251
▁dist	-1252
aces	-1253
▁interest	-1254
▁him	-1255
cle	-1256
▁pop	-1257
ités	-1258
ied	-1259
▁process	-1260
oth	-1261
▁scient	-1262
▁déf	-1263
▁étaient	-1264
▁différent	-1265
étais	-1266
ales	-1267
cul	-1268
ateur	-1269
ches	-1270
ives	-1271
▁essay	-1272
ian	-1273
▁better	-1274
▁dur	-1275
▁before	-1276
▁went	-1277
▁quoi	-1278
▁conne	-1279
ning	-1280
▁première	-1281
▁avant	-1282
▁might	-1283
▁vi	-1284
ists	-1285
idé	-1286
▁cet	-1287
▁train	-1288
▁aujourd	-1289
▁aff	-1290
▁exemple	-1291
▁str	-1292
▁ret	-1293
▁développ	-1294
vers	-1295
▁play	-1296
▁deven	-1297
▁z	-1298
autre	-1299
▁millions	-1300
▁colle	-1301
▁meille	-1302
▁problem	-1303
▁système	-1304
ête	-1305
▁understand	-1306
▁resp	-1307
▁another	-1308
▁ke	-1309
▁give	-1310
▁inté	-1311
▁6	-1312
itu	-1313
▁never	-1314
▁public	-1315
▁commencé	-1316
▁sent	-1317
▁possible	-1318
rib	-1319
▁system	-1320
▁power	-1321
▁voyez	-1322
ility	-1323
▁able	-1324
▁men	-1325
▁examp	-1326
ec	-1327
iles	-1328
▁voit	-1329
▁toute	-1330
▁ass	-1331
uses	-1332
semble	-1333
▁lors	-1334
▁trouv	-1335
▁bec	-1336
▁still	-1337
volution	-1338
▁program	-1339
ières	-1340
▁comb	-1341
▁belie	-1342
▁found	-1343
vé	-1344
ily	-1345
ug	-1346
▁story	-1347
▁tog	-1348
▁together	-1349
▁popul	-1350
ids	-1351
iter	-1352
▁sûr	-1353
eau	-1354
▁few	-1355
ational	-1356
ends	-1357
▁live	-1358
ience	-1359
▁vol	-1360
▁cerve	-1361
ider	-1362
alth	-1363
▁help	-1364
ène	-1365
▁esp	-1366
▁rob	-1367
kes	-1368
▁bit	-1369
▁science	-1370
▁fon	-1371
ression	-1372
▁came	-1373
▁jou	-1374
▁conc	-1375
ention	-1376
ather	-1377
atique	-1378
,"	-1379
▁cre	-1380
▁mor	-1381
▁manière	-1382
▁ago	-1383
▁high	-1384
ata	-1385
▁De	-1386
▁brain	-1387
▁next	-1388
ange	-1389
insi	-1390
ix	-1391
▁million	-1392
▁dou	-1393
ograph	-1394
ela	-1395
▁stru	-1396
els	-1397
▁mach	-1398
br	-1399
▁tant	-1400
arge	-1401
▁test	-1402
velop	-1403
▁lang	-1404
ween	-1405
▁ec	-1406
▁New	-1407
▁phys	-1408
ited	-1409
ks	-1410
▁souv	-1411
▁school	-1412
▁univers	-1413
ov	-1414
▁pourquoi	-1415
ié	-1416
avais	-1417
▁sl	-1418
ital	-1419
ules	-1420
él	-1421
▁aur	-1422
▁grande	-1423
meric	-1424
équ	-1425
▁êtes	-1426
▁Ind	-1427
▁eng	-1428
▁travers	-1429
cte	-1430
▁used	-1431
erm	-1432
▁water	-1433
iner	-1434
▁7	-1435
ones	-1436
▁dét	-1437
▁sous	-1438
▁appel	-1439
read	-1440
▁between	-1441
▁jusqu	-1442
▁depuis	-1443
ings	-1444
▁col	-1445
▁each	-1446
▁coll	-1447
utes	-1448
ices	-1449
▁trouver	-1450
▁When	-1451
▁rien	-1452
uss	-1453
▁8	-1454
ull	-1455
▁develop	-1456
▁Quand	-1457
suite	-1458
▁technology	-1459
▁Une	-1460
▁femmes	-1461
Un	-1462
▁déb	-1463
ng	-1464
élé	-1465
▁fonction	-1466
▁med	-1467
ivid	-1468
io	-1469
arm	-1470
iness	-1471
antes	-1472
▁font	-1473
▁sais	-1474
▁rend	-1475
▁devr	-1476
ED	-1477
▁9	-1478
▁cerveau	-1479
▁glo	-1480
▁quelqu	-1481
▁too	-1482
▁robot	-1483
▁vu	-1484
▁data	-1485
né	-1486
led	-1487
▁petit	-1488
▁small	-1489
▁group	-1490
▁15	-1491
▁100	-1492
▁Americ	-1493
arly	-1494
ilà	-1495
ateurs	-1496
▁données	-1497
▁fond	-1498
ized	-1499
▁women	-1500
été	-1501
▁bus	-1502
▁ple	-1503
▁pourrait	-1504
▁dr	-1505
▁dés	-1506
ways	-1507
▁Dans	-1508
▁30	-1509
▁assez	-1510
▁Main	-1511
▁looking	-1512
▁cher	-1513
▁love	-1514
▁moy	-1515
▁example	-1516
▁ref	-1517
▁lead	-1518
▁Cela	-1519
▁serv	-1520
▁old	-1521
ize	-1522
ret	-1523
▁face	-1524
▁Maintenant	-1525
▁passe	-1526
▁prot	-1527
▁50	-1528
▁génér	-1529
▁grow	-1530
▁prin	-1531
ances	-1532
ode	-1533
▁wr	-1534
▁che	-1535
roy	-1536
ision	-1537
▁How	-1538
▁faut	-1539
▁opp	-1540
▁comput	-1541
▁rapp	-1542
ries	-1543
ood	-1544
▁care	-1545
▁doesn	-1546
ds	-1547
▁réf	-1548
▁done	-1549
▁technologie	-1550
▁march	-1551
hist	-1552
▁déj	-1553
▁sorte	-1554
▁pouvoir	-1555
▁wanted	-1556
asse	-1557
▁suiv	-1558
▁intéress	-1559
▁prendre	-1560
▁ris	-1561
▁Because	-1562
▁présent	-1563
▁six	-1564
▁cou	-1565
▁inte	-1566
ably	-1567
▁créer	-1568
▁questions	-1569
▁move	-1570
aî	-1571
▁read	-1572
over	-1573
ness	-1574
▁hard	-1575
ser	-1576
▁light	-1577
▁dém	-1578
▁social	-1579
▁vir	-1580
ablement	-1581
▁devons	-1582
ép	-1583
▁rap	-1584
ark	-1585
▁Au	-1586
oney	-1587
ustr	-1588
ude	-1589
▁reas	-1590
▁permet	-1591
▁TED	-1592
▁eux	-1593
▁whole	-1594
▁exc	-1595
ternet	-1596
de	-1597
arr	-1598
▁vos	-1599
hip	-1600
▁imm	-1601
ième	-1602
ager	-1603
▁Afric	-1604
▁sing	-1605
ortun	-1606
▁sk	-1607
▁genre	-1608
▁gl	-1609
▁connect	-1610
rique	-1611
▁sour	-1612
atch	-1613
ural	-1614
cip	-1615
ye	-1616
▁information	-1617
▁port	-1618
▁beh	-1619
▁lab	-1620
▁trying	-1621
▁comprendre	-1622
▁es	-1623
ape	-1624
▁tour	-1625
▁complex	-1626
▁dess	-1627
▁mis	-1628
try	-1629
▁away	-1630
▁sel	-1631
▁appro	-1632
selves	-1633
▁always	-1634
▁working	-1635
▁idée	-1636
ene	-1637
▁effect	-1638
ger	-1639
ients	-1640
▁children	-1641
igne	-1642
▁peux	-1643
▁ed	-1644
▁el	-1645
▁premier	-1646
▁trait	-1647
▁less	-1648
▁dir	-1649
▁mort	-1650
▁econom	-1651
▁nouveau	-1652
▁project	-1653
▁under	-1654
▁mem	-1655
▁gros	-1656
▁gener	-1657
▁cancer	-1658
ifs	-1659
▁hand	-1660
ari	-1661
▁cal	-1662
▁mic	-1663
anger	-1664
ilité	-1665
▁déjà	-1666
▁glob	-1667
cial	-1668
istes	-1669
▁believe	-1670
▁sex	-1671
▁passé	-1672
oud	-1673
▁respons	-1674
▁country	-1675
man	-1676
▁open	-1677
▁donner	-1678
utôt	-1679
▁dom	-1680
▁cur	-1681
▁abs	-1682
▁crois	-1683
▁minutes	-1684
▁health	-1685
iens	-1686
ories	-1687
▁chez	-1688
▁trop	-1689
▁fri	-1690
▁individ	-1691
action	-1692
uff	-1693
ouse	-1694
▁Parce	-1695
▁rég	-1696
ordin	-1697
era	-1698
▁As	-1699
▁count	-1700
face	-1701
▁ép	-1702
▁év	-1703
▁terr	-1704
iel	-1705
▁Tout	-1706
▁culture	-1707
▁mil	-1708
isse	-1709
▁recher	-1710
▁bill	-1711
▁book	-1712
▁using	-1713
▁mess	-1714
▁puiss	-1715
▁000	-1716
▁loc	-1717
▁ceux	-1718
▁pict	-1719
▁savoir	-1720
wh	-1721
▁Pe	-1722
ount	-1723
▁home	-1724
▁thinking	-1725
▁plutôt	-1726
▁trad	-1727
▁means	-1728
▁Ar	-1729
arth	-1730
▁clim	-1731
▁repr	-1732
▁ste	-1733
▁ress	-1734
▁viol	-1735
aur	-1736
▁beaut	-1737
▁Is	-1738
▁money	-1739
▁simplement	-1740
ete	-1741
▁Re	-1742
▁pay	-1743
▁télé	-1744
▁ég	-1745
oute	-1746
▁lim	-1747
▁run	-1748
nov	-1749
▁space	-1750
upart	-1751
▁plupart	-1752
▁endro	-1753
▁auc	-1754
gg	-1755
▁problèmes	-1756
sy	-1757
▁took	-1758
isme	-1759
▁côt	-1760
▁type	-1761
▁maybe	-1762
▁histoire	-1763
▁ceci	-1764
nous	-1765
▁montrer	-1766
▁five	-1767
▁neur	-1768
lez	-1769
▁situ	-1770
▁contre	-1771
▁rad	-1772
▁bonne	-1773
▁create	-1774
▁jours	-1775
▁raison	-1776
▁number	-1777
qué	-1778
▁transform	-1779
▁entrepr	-1780
exp	-1781
bo	-1782
utions	-1783
mber	-1784
ron	-1785
▁An	-1786
▁ai	-1787
▁pot	-1788
▁super	-1789
▁become	-1790
▁sim	-1791
▁mois	-1792
▁expéri	-1793
ocr	-1794
▁val	-1795
▁biolog	-1796
tres	-1797
▁everything	-1798
▁!	-1799
▁mettre	-1800
▁contro	-1801
orn	-1802
▁large	-1803
▁compan	-1804
uer	-1805
ell	-1806
▁kids	-1807
▁My	-1808
▁One	-1809
▁parf	-1810
▁future	-1811
▁moyen	-1812
ament	-1813
▁économ	-1814
▁mind	-1815
▁aller	-1816
gin	-1817
iennent	-1818
anté	-1819
llig	-1820
▁cause	-1821
ub	-1822
itions	-1823
teur	-1824
▁pap	-1825
▁wal	-1826
èg	-1827
▁best	-1828
omb	-1829
▁mieux	-1830
▁gouver	-1831
▁réalis	-1832
▁left	-1833
▁image	-1834
alf	-1835
▁teach	-1836
▁cle	-1837
▁mark	-1838
▁voici	-1839
▁corps	-1840
ôle	-1841
▁head	-1842
▁blo	-1843
▁mag	-1844
▁For	-1845
▁bre	-1846
vern	-1847
ieurs	-1848
érieur	-1849
▁projet	-1850
▁getting	-1851
rir	-1852
▁fun	-1853
onne	-1854
▁enough	-1855
▁succ	-1856
quelle	-1857
▁tot	-1858
▁Fr	-1859
ente	-1860
ides	-1861
ergy	-1862
▁ensuite	-1863
▁invest	-1864
▁modè	-1865
▁govern	-1866
aps	-1867
▁serait	-1868
▁ainsi	-1869
▁changer	-1870
▁laquelle	-1871
sembl	-1872
▁quite	-1873
▁population	-1874
▁month	-1875
▁nouvelle	-1876
▁interesting	-1877
▁food	-1878
▁She	-1879
land	-1880
▁concept	-1881
ety	-1882
▁lum	-1883
▁norm	-1884
▁OK	-1885
▁comes	-1886
▁propos	-1887
▁doit	-1888
▁malad	-1889
▁cours	-1890
ument	-1891
▁stand	-1892
ze	-1893
lic	-1894
▁ordin	-1895
▁dri	-1896
▁times	-1897
ced	-1898
▁sense	-1899
enir	-1900
là	-1901
▁York	-1902
▁front	-1903
lu	-1904
temp	-1905
▁class	-1906
▁prov	-1907
▁petite	-1908
▁Internet	-1909
reen	-1910
▁happened	-1911
▁set	-1912
érer	-1913
mment	-1914
▁pret	-1915
▁seul	-1916
▁These	-1917
▁avaient	-1918
▁surv	-1919
▁préc	-1920
▁communaut	-1921
bit	-1922
▁cir	-1923
▁veut	-1924
▁making	-1925
▁answ	-1926
▁fig	-1927
aille	-1928
▁job	-1929
▁far	-1930
▁milli	-1931
eng	-1932
▁mét	-1933
▁pren	-1934
▁business	-1935
omm	-1936
▁princip	-1937
▁wee	-1938
llow	-1939
▁lieu	-1940
ince	-1941
▁energy	-1942
▁nive	-1943
▁occ	-1944
ises	-1945
▁add	-1946
▁Que	-1947
▁prote	-1948
▁countries	-1949
agit	-1950
▁talking	-1951
ote	-1952
ott	-1953
▁maj	-1954
▁ach	-1955
llez	-1956
oupe	-1957
▁air	-1958
▁répons	-1959
histoire	-1960
▁parents	-1961
▁probably	-1962
Unis	-1963
▁incroy	-1964
▁penser	-1965
ission	-1966
▁reven	-1967
▁told	-1968
ism	-1969
orme	-1970
ross	-1971
▁quat	-1972
▁vont	-1973
▁All	-1974
▁top	-1975
▁typ	-1976
elles	-1977
▁body	-1978
▁mond	-1979
▁def	-1980
▁log	-1981
même	-1982
ately	-1983
▁without	-1984
▁object	-1985
▁équ	-1986
▁machine	-1987
▁building	-1988
tant	-1989
▁ident	-1990
▁passer	-1991
▁stuff	-1992
isation	-1993
iquement	-1994
onder	-1995
▁côté	-1996
▁film	-1997
ird	-1998
ination	-1999
▁rac	-2000
▁compte	-2001
▁elect	-2002
uge	-2003
sych	-2004
han	-2005
itive	-2006
▁femme	-2007
uel	-2008
▁18	-2009
éric	-2010
▁certains	-2011
oles	-2012
ward	-2013
▁keep	-2014
▁quant	-2015
▁room	-2016
▁young	-2017
endu	-2018
▁santé	-2019
▁ville	-2020
quel	-2021
▁cam	-2022
▁reason	-2023
▁12	-2024
▁imagine	-2025
▁cho	-2026
▁allow	-2027
▁exist	-2028
ying	-2029
▁coming	-2030
▁représent	-2031
▁près	-2032
▁global	-2033
▁Here	-2034
▁ant	-2035
▁lives	-2036
idd	-2037
▁Am	-2038
avoir	-2039
omp	-2040
▁utiliser	-2041
êmes	-2042
▁side	-2043
▁réc	-2044
▁disp	-2045
ina	-2046
▁diffic	-2047
encont	-2048
▁capac	-2049
▁desc	-2050
▁else	-2051
▁scientif	-2052
▁hy	-2053
eter	-2054
jets	-2055
▁invent	-2056
▁tra	-2057
oires	-2058
▁such	-2059
▁intern	-2060
lus	-2061
▁fas	-2062
▁pie	-2063
▁surpr	-2064
▁half	-2065
▁forme	-2066
▁lorsque	-2067
▁pretty	-2068
▁anything	-2069
rodu	-2070
▁cin	-2071
éré	-2072
▁rich	-2073
▁fall	-2074
▁chance	-2075
lui	-2076
tement	-2077
icile	-2078
▁Comment	-2079
▁arr	-2080
ality	-2081
▁chem	-2082
aug	-2083
▁trouve	-2084
kay	-2085
gs	-2086
▁vide	-2087
▁No	-2088
▁bad	-2089
▁extra	-2090
orth	-2091
▁fab	-2092
idée	-2093
▁propre	-2094
▁découver	-2095
▁activ	-2096
▁product	-2097
▁psych	-2098
oh	-2099
▁across	-2100
▁hommes	-2101
cies	-2102
▁Let	-2103
▁fer	-2104
▁40	-2105
▁rencont	-2106
env	-2107
▁rese	-2108
rop	-2109
▁celui	-2110
▁wonder	-2111
▁saw	-2112
▁pain	-2113
▁sera	-2114
▁Des	-2115
argent	-2116
▁Cette	-2117
▁bro	-2118
▁nour	-2119
▁différentes	-2120
▁laiss	-2121
▁parl	-2122
▁pi	-2123
esse	-2124
ream	-2125
çons	-2126
pir	-2127
▁répond	-2128
▁family	-2129
▁connaiss	-2130
▁tard	-2131
▁surface	-2132
urope	-2133
▁photo	-2134
▁sound	-2135
▁souvent	-2136
▁Ces	-2137
▁eas	-2138
▁bring	-2139
oque	-2140
▁makes	-2141
▁ensemble	-2142
ton	-2143
work	-2144
▁civ	-2145
▁arch	-2146
ension	-2147
member	-2148
▁giv	-2149
▁collect	-2150
most	-2151
▁seen	-2152
▁Go	-2153
arri	-2154
▁later	-2155
▁relations	-2156
▁net	-2157
énerg	-2158
▁difficile	-2159
0,	-2160
▁fac	-2161
ran	-2162
▁cy	-2163
▁camp	-2164
▁says	-2165
▁Africa	-2166
avons	-2167
▁educ	-2168
▁allons	-2169
▁case	-2170
èce	-2171
▁possib	-2172
▁réalité	-2173
▁autour	-2174
▁experience	-2175
▁asked	-2176
▁hope	-2177
▁donne	-2178
▁living	-2179
▁signif	-2180
▁;	-2181
▁'	-2182
▁sé	-2183
iser	-2184
énergie	-2185
▁ill	-2186
▁dise	-2187
▁prom	-2188
▁consci	-2189
▁images	-2190
▁base	-2191
▁tend	-2192
▁ways	-2193
ization	-2194
auvais	-2195
▁trouvé	-2196
▁rapide	-2197
▁résult	-2198
".	-2199
▁having	-2200
▁quatre	-2201
bres	-2202
▁happens	-2203
▁vér	-2204
▁sure	-2205
▁absol	-2206
▁bou	-2207
▁technologies	-2208
▁days	-2209
▁goes	-2210
ake	-2211
▁force	-2212
▁Pourquoi	-2213
▁list	-2214
imin	-2215
where	-2216
▁maison	-2217
uck	-2218
▁begin	-2219
▁intellig	-2220
▁structure	-2221
▁share	-2222
▁mauvais	-2223
rais	-2224
▁equ	-2225
▁parle	-2226
▁complete	-2227
▁micro	-2228
▁niveau	-2229
▁Or	-2230
▁opportun	-2231
▁celle	-2232
▁opt	-2233
▁début	-2234
▁25	-2235
▁computer	-2236
▁CA	-2237
▁société	-2238
▁answer	-2239
▁groupe	-2240
tent	-2241
▁ment	-2242
▁conv	-2243
ession	-2244
▁heure	-2245
▁picture	-2246
▁solution	-2247
rait	-2248
▁mult	-2249
iale	-2250
ready	-2251
▁famille	-2252
vie	-2253
ames	-2254
▁exact	-2255
▁iss	-2256
▁Earth	-2257
▁single	-2258
▁thous	-2259
▁planète	-2260
▁suff	-2261
▁patients	-2262
gl	-2263
▁planet	-2264
▁faisons	-2265
▁city	-2266
enn	-2267
indre	-2268
hy	-2269
eur	-2270
▁mass	-2271
▁problems	-2272
lev	-2273
unes	-2274
▁priv	-2275
▁innov	-2276
▁research	-2277
ètres	-2278
▁amaz	-2279
itude	-2280
▁Sh	-2281
▁almost	-2282
▁changement	-2283
ément	-2284
▁community	-2285
▁situation	-2286
▁while	-2287
ots	-2288
importe	-2289
▁reste	-2290
▁environment	-2291
▁char	-2292
▁level	-2293
ilt	-2294
▁obten	-2295
oss	-2296
ury	-2297
urb	-2298
▁remember	-2299
agne	-2300
▁gir	-2301
ided	-2302
iction	-2303
vert	-2304
▁inside	-2305
▁savons	-2306
teurs	-2307
very	-2308
▁already	-2309
ock	-2310
orer	-2311
▁essent	-2312
léch	-2313
▁saying	-2314
▁travailler	-2315
duc	-2316
outh	-2317
▁potent	-2318
▁cost	-2319
▁haut	-2320
▁milliards	-2321
ienne	-2322
▁également	-2323
ax	-2324
rez	-2325
ken	-2326
▁lumière	-2327
▁At	-2328
▁watch	-2329
▁faites	-2330
til	-2331
▁cit	-2332
▁sujet	-2333
érique	-2334
▁presque	-2335
▁both	-2336
▁partir	-2337
▁hear	-2338
▁billion	-2339
▁yet	-2340
orter	-2341
acy	-2342
▁én	-2343
icip	-2344
▁vidé	-2345
ane	-2346
▁pauv	-2347
lement	-2348
▁chall	-2349
▁communic	-2350
ield	-2351
▁marché	-2352
▁math	-2353
▁music	-2354
▁whether	-2355
aw	-2356
▁langu	-2357
▁commence	-2358
▁nouvelles	-2359
▁dest	-2360
▁looked	-2361
aud	-2362
▁red	-2363
gment	-2364
▁voulez	-2365
▁ev	-2366
▁tellement	-2367
▁thé	-2368
▁stat	-2369
issent	-2370
min	-2371
▁siè	-2372
appelle	-2373
▁Elles	-2374
▁complète	-2375
▁rée	-2376
▁matter	-2377
ipe	-2378
▁once	-2379
▁relig	-2380
▁table	-2381
▁réponse	-2382
▁nothing	-2383
unch	-2384
▁someone	-2385
▁anal	-2386
▁within	-2387
▁figure	-2388
▁demandé	-2389
moi	-2390
▁élect	-2391
▁arg	-2392
▁faci	-2393
inform	-2394
▁bat	-2395
▁mater	-2396
▁basically	-2397
▁vision	-2398
▁discover	-2399
enf	-2400
less	-2401
inter	-2402
▁plusieurs	-2403
▁incred	-2404
ossi	-2405
▁...	-2406
▁often	-2407
▁ideas	-2408
▁wrong	-2409
prit	-2410
otion	-2411
▁produit	-2412
▁fai	-2413
▁allez	-2414
▁appar	-2415
avi	-2416
iant	-2417
usement	-2418
▁couple	-2419
▁myself	-2420
cl	-2421
▁amazing	-2422
erv	-2423
ogn	-2424
ources	-2425
▁attention	-2426
▁looks	-2427
▁homme	-2428
▁emplo	-2429
ash	-2430
éli	-2431
▁donné	-2432
▁beautif	-2433
ush	-2434
▁carb	-2435
▁direct	-2436
▁différents	-2437
ât	-2438
▁petits	-2439
▁history	-2440
▁commencer	-2441
▁difficult	-2442
▁idées	-2443
▁remar	-2444
▁construire	-2445
tats	-2446
▁Mon	-2447
▁kne	-2448
▁Voilà	-2449
▁market	-2450
mat	-2451
▁coû	-2452
▁obser	-2453
▁appris	-2454
▁guy	-2455
▁true	-2456
ili	-2457
▁rése	-2458
▁ém	-2459
ener	-2460
▁Eh	-2461
leur	-2462
▁Why	-2463
▁pouvait	-2464
▁order	-2465
▁months	-2466
▁Bon	-2467
▁aud	-2468
accord	-2469
▁atte	-2470
▁night	-2471
urg	-2472
▁nat	-2473
▁vill	-2474
undred	-2475
▁United	-2476
▁réfléch	-2477
▁model	-2478
ox	-2479
▁vue	-2480
▁kill	-2481
▁treat	-2482
▁heart	-2483
▁signifie	-2484
orts	-2485
side	-2486
univers	-2487
▁requ	-2488
▁tradition	-2489
▁Bien	-2490
line	-2491
▁const	-2492
avant	-2493
▁stop	-2494
▁instit	-2495
▁retr	-2496
ièrement	-2497
▁probablement	-2498
âce	-2499
▁cellules	-2500
▁regarder	-2501
▁self	-2502
riture	-2503
▁enfant	-2504
oll	-2505
▁major	-2506
▁entire	-2507
▁Se	-2508
▁cinq	-2509
▁humain	-2510
▁consid	-2511
▁cells	-2512
▁line	-2513
cale	-2514
▁Europe	-2515
▁fund	-2516
▁année	-2517
▁control	-2518
ering	-2519
▁crit	-2520
oix	-2521
bers	-2522
▁news	-2523
▁walk	-2524
▁words	-2525
▁ni	-2526
▁works	-2527
▁Ou	-2528
▁lib	-2529
▁heard	-2530
▁ligne	-2531
▁Can	-2532
yn	-2533
uelle	-2534
▁médic	-2535
▁web	-2536
▁gard	-2537
▁state	-2538
▁retour	-2539
▁vient	-2540
imer	-2541
▁wasn	-2542
▁hundred	-2543
▁full	-2544
▁journ	-2545
eff	-2546
▁orig	-2547
▁mère	-2548
▁guerre	-2549
▁livre	-2550
▁rev	-2551
rière	-2552
▁humains	-2553
▁government	-2554
▁built	-2555
bes	-2556
omes	-2557
▁heures	-2558
thers	-2559
▁places	-2560
omme	-2561
iddle	-2562
▁beautiful	-2563
▁arrive	-2564
▁age	-2565
▁mouve	-2566
▁prés	-2567
▁friends	-2568
▁processus	-2569
nel	-2570
orat	-2571
ium	-2572
vious	-2573
osed	-2574
▁recherche	-2575
▁extraordin	-2576
▁result	-2577
▁jeu	-2578
ibles	-2579
▁rendre	-2580
▁dernière	-2581
▁hor	-2582
▁communauté	-2583
ige	-2584
▁kil	-2585
▁concent	-2586
▁sau	-2587
▁magn	-2588
▁médec	-2589
▁voiture	-2590
▁modèle	-2591
▁incre	-2592
▁Car	-2593
▁war	-2594
▁chois	-2595
▁individual	-2596
▁tre	-2597
▁tête	-2598
ras	-2599
▁devez	-2600
▁continu	-2601
▁writ	-2602
▁simil	-2603
▁gouvernement	-2604
ivent	-2605
▁until	-2606
▁voilà	-2607
cev	-2608
▁truc	-2609
▁gar	-2610
éro	-2611
ivité	-2612
▁endroit	-2613
▁must	-2614
▁sw	-2615
cus	-2616
▁vari	-2617
▁proch	-2618
▁complètement	-2619
▁Gr	-2620
espace	-2621
▁perform	-2622
▁développement	-2623
▁ban	-2624
▁convers	-2625
▁chac	-2626
amm	-2627
▁calcul	-2628
▁species	-2629
éf	-2630
ony	-2631
▁Goog	-2632
▁mots	-2633
▁follow	-2634
came	-2635
▁law	-2636
▁name	-2637
▁piece	-2638
▁comporte	-2639
▁disent	-2640
ades	-2641
▁élé	-2642
temps	-2643
▁material	-2644
urer	-2645
▁série	-2646
▁partout	-2647
▁yeux	-2648
▁organis	-2649
abord	-2650
▁quick	-2651
▁became	-2652
▁everybody	-2653
urité	-2654
▁augment	-2655
▁Est	-2656
▁voud	-2657
▁impact	-2658
▁archite	-2659
mis	-2660
ume	-2661
▁pous	-2662
iqu	-2663
ront	-2664
▁language	-2665
▁deep	-2666
▁regardez	-2667
▁tool	-2668
inc	-2669
▁site	-2670
▁completely	-2671
▁Do	-2672
▁States	-2673
osph	-2674
▁éch	-2675
▁vivre	-2676
▁decided	-2677
▁land	-2678
oration	-2679
▁meilleur	-2680
ired	-2681
▁isn	-2682
ator	-2683
▁leaders	-2684
▁points	-2685
▁passion	-2686
avor	-2687
èces	-2688
▁199	-2689
▁lég	-2690
▁view	-2691
▁grâce	-2692
çu	-2693
get	-2694
▁knew	-2695
▁sym	-2696
uf	-2697
▁access	-2698
▁quelle	-2699
▁voulais	-2700
▁bât	-2701
▁tas	-2702
▁bout	-2703
▁transp	-2704
▁education	-2705
▁message	-2706
▁60	-2707
▁dig	-2708
▁animal	-2709
▁though	-2710
▁America	-2711
▁Man	-2712
▁exactly	-2713
▁».	-2714
fect	-2715
acter	-2716
▁happening	-2717
▁expérience	-2718
agine	-2719
▁success	-2720
▁Comme	-2721
idence	-2722
rés	-2723
▁exac	-2724
▁word	-2725
▁habit	-2726
▁learned	-2727
▁Every	-2728
▁Im	-2729
af	-2730
▁Google	-2731
opp	-2732
▁video	-2733
▁woman	-2734
▁patient	-2735
▁animaux	-2736
▁adv	-2737
étique	-2738
▁entendu	-2739
▁study	-2740
▁indust	-2741
▁stories	-2742
▁Oui	-2743
assion	-2744
aff	-2745
▁peur	-2746
▁vale	-2747
▁dru	-2748
▁cart	-2749
▁devenir	-2750
▁politique	-2751
▁rédu	-2752
▁musique	-2753
istan	-2754
▁post	-2755
▁taking	-2756
▁néc	-2757
▁huge	-2758
▁somebody	-2759
▁photograph	-2760
rill	-2761
▁itself	-2762
▁certaines	-2763
▁deal	-2764
▁Terre	-2765
▁décidé	-2766
rès	-2767
▁animals	-2768
liquer	-2769
▁house	-2770
▁bab	-2771
▁gets	-2772
▁reconn	-2773
▁fre	-2774
▁créé	-2775
▁students	-2776
▁local	-2777
▁engine	-2778
Af	-2779
▁divers	-2780
etic	-2781
▁père	-2782
▁since	-2783
hab	-2784
▁loin	-2785
hum	-2786
▁society	-2787
▁amis	-2788
▁avions	-2789
▁Oh	-2790
▁meet	-2791
▁past	-2792
▁ones	-2793
▁aider	-2794
▁pensé	-2795
▁essayer	-2796
abilité	-2797
aître	-2798
ulent	-2799
▁sugg	-2800
▁spect	-2801
▁nécess	-2802
ducation	-2803
mi	-2804
▁téléph	-2805
ware	-2806
▁cat	-2807
▁against	-2808
▁meas	-2809
▁dernières	-2810
▁themselves	-2811
den	-2812
▁él	-2813
▁universe	-2814
▁terre	-2815
ande	-2816
▁sud	-2817
▁close	-2818
▁spend	-2819
intérieur	-2820
ouvrir	-2821
▁effic	-2822
▁kinds	-2823
▁201	-2824
▁capable	-2825
ability	-2826
itting	-2827
▁ourselves	-2828
Wh	-2829
",	-2830
▁racont	-2831
reg	-2832
▁emb	-2833
▁appelé	-2834
▁11	-2835
▁bar	-2836
ister	-2837
▁behavi	-2838
▁grands	-2839
▁pan	-2840
▁vois	-2841
▁record	-2842
▁croy	-2843
▁montre	-2844
▁support	-2845
isions	-2846
▁along	-2847
▁jeunes	-2848
heure	-2849
iants	-2850
▁ball	-2851
▁intéressant	-2852
ma	-2853
▁gal	-2854
ettes	-2855
▁larg	-2856
▁ann	-2857
école	-2858
▁hours	-2859
▁touch	-2860
▁lequel	-2861
▁sil	-2862
▁séc	-2863
rible	-2864
iments	-2865
▁poll	-2866
▁India	-2867
▁choix	-2868
▁turns	-2869
▁sometimes	-2870
avez	-2871
▁created	-2872
oph	-2873
▁sout	-2874
▁sait	-2875
▁aucune	-2876
▁violence	-2877
bas	-2878
▁afin	-2879
▁company	-2880
▁sal	-2881
▁80	-2882
▁Some	-2883
▁mesure	-2884
▁écrit	-2885
▁couldn	-2886
▁instru	-2887
▁milliers	-2888
▁particular	-2889
▁siècle	-2890
▁sembl	-2891
atiques	-2892
▁worked	-2893
▁cop	-2894
▁impro	-2895
▁source	-2896
▁incl	-2897
▁capacité	-2898
haps	-2899
▁conte	-2900
apt	-2901
▁div	-2902
▁rather	-2903
▁dernier	-2904
▁particip	-2905
▁compassion	-2906
▁Quel	-2907
▁prim	-2908
auche	-2909
▁futur	-2910
▁arriver	-2911
▁Ceci	-2912
▁disease	-2913
▁règ	-2914
▁hold	-2915
▁oce	-2916
▁exactement	-2917
ifier	-2918
▁prog	-2919
ivement	-2920
rire	-2921
soci	-2922
▁God	-2923
▁doct	-2924
▁team	-2925
▁marche	-2926
rup	-2927
év	-2928
▁trou	-2929
▁nourriture	-2930
let	-2931
▁mer	-2932
▁fant	-2933
▁perd	-2934
wards	-2935
▁vidéo	-2936
▁parfois	-2937
▁continue	-2938
▁incroyable	-2939
▁syn	-2940
ossible	-2941
▁mother	-2942
▁voulons	-2943
▁Then	-2944
érence	-2945
▁least	-2946
▁aurait	-2947
ney	-2948
ctions	-2949
▁grandes	-2950
▁découvert	-2951
▁Non	-2952
▁expect	-2953
▁wind	-2954
▁confl	-2955
▁leg	-2956
ished	-2957
▁focus	-2958
orie	-2959
▁thousands	-2960
▁ext	-2961
▁travaille	-2962
je	-2963
▁remp	-2964
▁everyone	-2965
iver	-2966
▁Puis	-2967
▁améric	-2968
▁others	-2969
▁photos	-2970
▁bott	-2971
▁circ	-2972
▁week	-2973
▁black	-2974
▁réellement	-2975
tead	-2976
▁arriv	-2977
▁pred	-2978
environ	-2979
ook	-2980
aque	-2981
aimer	-2982
▁envoy	-2983
ception	-2984
▁ressemble	-2985
▁mob	-2986
▁early	-2987
▁fly	-2988
▁won	-2989
pital	-2990
▁game	-2991
▁collab	-2992
▁network	-2993
▁rapidement	-2994
▁guys	-2995
▁instead	-2996
merg	-2997
▁free	-2998
▁jouer	-2999
uv	-3000
occ	-3001
▁Pro	-3002
▁histoires	-3003
▁liter	-3004
▁tom	-3005
ology	-3006
▁compris	-3007
atif	-3008
▁obs	-3009
▁Okay	-3010
▁dois	-3011
itation	-3012
▁demande	-3013
not	-3014
▁field	-3015
▁semble	-3016
irer	-3017
icle	-3018
aring	-3019
▁seem	-3020
▁aucun	-3021
▁favor	-3022
▁compos	-3023
iné	-3024
▁devant	-3025
▁speak	-3026
ither	-3027
▁lots	-3028
▁gave	-3029
vention	-3030
▁taille	-3031
▁American	-3032
ases	-3033
▁taken	-3034
▁croiss	-3035
▁police	-3036
▁apprendre	-3037
ias	-3038
itié	-3039
▁happy	-3040
▁robots	-3041
▁villes	-3042
▁conditions	-3043
▁difference	-3044
view	-3045
▁cool	-3046
▁porte	-3047
▁systems	-3048
ohn	-3049
▁listen	-3050
▁importante	-3051
ocrat	-3052
▁contrib	-3053
▁outside	-3054
ared	-3055
omet	-3056
▁nuc	-3057
▁util	-3058
ift	-3059
▁civil	-3060
▁fille	-3061
▁finan	-3062
▁third	-3063
▁interact	-3064
▁%	-3065
▁press	-3066
▁natural	-3067
▁ressembl	-3068
▁poor	-3069
▁longtemps	-3070
ik	-3071
ling	-3072
▁Dieu	-3073
endent	-3074
▁recent	-3075
yes	-3076
▁death	-3077
▁types	-3078
▁centre	-3079
▁present	-3080
▁village	-3081
▁Ainsi	-3082
▁changed	-3083
▁meilleure	-3084
▁hon	-3085
▁dû	-3086
▁stre	-3087
fe	-3088
▁code	-3089
▁affect	-3090
▁16	-3091
ancer	-3092
▁China	-3093
▁nation	-3094
▁distrib	-3095
iger	-3096
▁ense	-3097
uellement	-3098
ral	-3099
cier	-3100
ival	-3101
▁ton	-3102
▁cut	-3103
▁voyons	-3104
▁Imagine	-3105
rew	-3106
ency	-3107
▁défin	-3108
▁demander	-3109
▁fasc	-3110
▁champ	-3111
The	-3112
aime	-3113
▁oper	-3114
elt	-3115
▁rê	-3116
issez	-3117
▁prend	-3118
▁prison	-3119
▁relationship	-3120
▁»,	-3121
▁fur	-3122
▁oui	-3123
nelle	-3124
▁middle	-3125
▁profession	-3126
▁prix	-3127
issons	-3128
▁différence	-3129
▁dim	-3130
▁graph	-3131
▁veulent	-3132
▁ir	-3133
ially	-3134
▁area	-3135
▁unique	-3136
âge	-3137
▁pick	-3138
▁leave	-3139
▁virus	-3140
▁petites	-3141
▁impossible	-3142
cé	-3143
lant	-3144
▁Chine	-3145
▁regarde	-3146
▁learning	-3147
avait	-3148
rons	-3149
▁clin	-3150
▁sold	-3151
▁century	-3152
▁sécurité	-3153
abl	-3154
ove	-3155
ully	-3156
▁sac	-3157
▁wait	-3158
aig	-3159
▁arm	-3160
▁John	-3161
atever	-3162
▁devrait	-3163
▁ge	-3164
ever	-3165
▁eyes	-3166
▁dispar	-3167
▁entier	-3168
opt	-3169
ènes	-3170
organ	-3171
▁position	-3172
rog	-3173
airement	-3174
liqu	-3175
ouge	-3176
▁pensez	-3177
0.	-3178
orld	-3179
astic	-3180
▁etc	-3181
▁sat	-3182
▁turned	-3183
▁Just	-3184
▁facile	-3185
▁perfect	-3186
▁scientifiques	-3187
▁given	-3188
▁influ	-3189
ération	-3190
▁behind	-3191
▁beginning	-3192
▁fort	-3193
▁préf	-3194
▁dream	-3195
▁seven	-3196
▁milieu	-3197
aged	-3198
aller	-3199
▁invol	-3200
▁anci	-3201
▁Pas	-3202
chelle	-3203
ologie	-3204
▁souff	-3205
▁cities	-3206
issement	-3207
▁merve	-3208
▁suite	-3209
▁dessus	-3210
▁concern	-3211
ann	-3212
▁Ph	-3213
▁Cal	-3214
▁hands	-3215
▁14	-3216
▁phil	-3217
▁green	-3218
▁devenu	-3219
▁systèmes	-3220
▁nuit	-3221
▁puisse	-3222
verage	-3223
ike	-3224
▁West	-3225
▁milit	-3226
▁maladie	-3227
▁behavior	-3228
▁spé	-3229
▁takes	-3230
▁changé	-3231
▁gauche	-3232
bor	-3233
▁droit	-3234
▁reach	-3235
ss	-3236
▁ing	-3237
▁chacun	-3238
▁common	-3239
▁service	-3240
▁vite	-3241
▁terror	-3242
aît	-3243
▁programme	-3244
▁Ste	-3245
information	-3246
aves	-3247
▁der	-3248
▁dra	-3249
amment	-3250
▁parts	-3251
▁arrivé	-3252
▁énorme	-3253
▁plein	-3254
▁lesque	-3255
▁yourself	-3256
ama	-3257
étro	-3258
▁seeing	-3259
▁mouvement	-3260
▁ble	-3261
▁flo	-3262
▁needed	-3263
▁direction	-3264
▁short	-3265
▁normal	-3266
book	-3267
▁low	-3268
▁extre	-3269
▁finally	-3270
▁deuxième	-3271
▁card	-3272
▁easy	-3273
▁Chris	-3274
▁began	-3275
▁bal	-3276
oudre	-3277
ustrie	-3278
▁terms	-3279
▁accept	-3280
itter	-3281
aimerais	-3282
▁humaine	-3283
▁informations	-3284
▁break	-3285
▁Certain	-3286
éb	-3287
▁17	-3288
▁vict	-3289
▁vies	-3290
yer	-3291
èrent	-3292
▁dépl	-3293
▁perhaps	-3294
▁fonctionne	-3295
▁production	-3296
▁ap	-3297
erez	-3298
▁doivent	-3299
▁foot	-3300
▁needs	-3301
▁moving	-3302
▁respect	-3303
▁powerful	-3304
▁produits	-3305
veill	-3306
▁combien	-3307
▁pattern	-3308
▁contrôle	-3309
▁étr	-3310
usion	-3311
▁tiss	-3312
▁salle	-3313
▁associ	-3314
▁devient	-3315
▁symp	-3316
ctures	-3317
▁parlé	-3318
▁companies	-3319
isc	-3320
▁nu	-3321
aught	-3322
▁obvious	-3323
▁étudiants	-3324
NA	-3325
ires	-3326
▁Not	-3327
▁voyage	-3328
▁doc	-3329
esprit	-3330
▁venir	-3331
▁rapport	-3332
▁during	-3333
▁ressent	-3334
▁croissance	-3335
atives	-3336
▁galax	-3337
▁cannot	-3338
▁simply	-3339
▁selon	-3340
▁utilisé	-3341
▁Ge	-3342
aide	-3343
gard	-3344
années	-3345
▁signific	-3346
êts	-3347
▁machines	-3348
▁realized	-3349
▁rent	-3350
▁parfait	-3351
▁version	-3352
ram	-3353
▁paper	-3354
▁compar	-3355
▁inspir	-3356
sh	-3357
▁Ma	-3358
▁longer	-3359
▁équipe	-3360
▁fix	-3361
▁compr	-3362
▁réseau	-3363
▁merveille	-3364
ration	-3365
▁solutions	-3366
hood	-3367
▁vert	-3368
▁danger	-3369
ture	-3370
ulation	-3371
▁origin	-3372
▁wonderful	-3373
▁bure	-3374
▁media	-3375
▁directe	-3376
▁nouveaux	-3377
icated	-3378
▁repres	-3379
of	-3380
year	-3381
▁péri	-3382
▁conse	-3383
▁effet	-3384
▁event	-3385
▁jeune	-3386
▁appelle	-3387
Afrique	-3388
▁endroits	-3389
aie	-3390
ué	-3391
▁size	-3392
▁existe	-3393
▁gé	-3394
▁pouvais	-3395
▁particulier	-3396
▁oil	-3397
aissez	-3398
▁father	-3399
étés	-3400
cevoir	-3401
▁voudrais	-3402
▁noir	-3403
▁virt	-3404
▁friend	-3405
▁To	-3406
ined	-3407
iance	-3408
▁protect	-3409
leil	-3410
▁autom	-3411
▁famil	-3412
▁sortir	-3413
▁mondiale	-3414
▁whatever	-3415
▁comportement	-3416
Oh	-3417
cles	-3418
dess	-3419
▁fore	-3420
▁carte	-3421
▁corre	-3422
oser	-3423
▁May	-3424
aking	-3425
▁blue	-3426
▁felt	-3427
▁chiff	-3428
outer	-3429
▁special	-3430
▁services	-3431
mêmes	-3432
▁eight	-3433
▁absolute	-3434
▁feed	-3435
▁13	-3436
▁kid	-3437
▁sun	-3438
anche	-3439
▁fabri	-3440
▁profond	-3441
▁experiment	-3442
▁pract	-3443
▁pur	-3444
année	-3445
uring	-3446
▁laborat	-3447
▁entreprises	-3448
fully	-3449
▁reality	-3450
men	-3451
ails	-3452
ivity	-3453
▁environnement	-3454
acer	-3455
iting	-3456
ledge	-3457
▁vacc	-3458
▁amount	-3459
▁perspect	-3460
▁dark	-3461
▁World	-3462
▁tried	-3463
▁quickly	-3464
▁centaines	-3465
êter	-3466
SA	-3467
▁path	-3468
▁wall	-3469
▁compren	-3470
éducation	-3471
oms	-3472
rée	-3473
inte	-3474
▁proc	-3475
▁phone	-3476
▁moitié	-3477
▁approach	-3478
▁economic	-3479
▁progress	-3480
▁page	-3481
▁People	-3482
itch	-3483
rupt	-3484
▁action	-3485
▁explain	-3486
enge	-3487
▁ign	-3488
lling	-3489
▁chim	-3490
▁droite	-3491
▁alg	-3492
▁din	-3493
▁tel	-3494
lection	-3495
▁physique	-3496
eah	-3497
▁198	-3498
▁semaines	-3499
▁fish	-3500
▁mari	-3501
gy	-3502
▁?"	-3503
▁500	-3504
▁bord	-3505
▁partager	-3506
eurs	-3507
amour	-3508
icles	-3509
êtres	-3510
▁spent	-3511
▁humans	-3512
▁measure	-3513
▁Sp	-3514
▁ait	-3515
▁scale	-3516
yg	-3517
▁voix	-3518
▁expert	-3519
▁strong	-3520
▁personal	-3521
▁interested	-3522
Am	-3523
▁ay	-3524
▁réun	-3525
▁Mars	-3526
▁sang	-3527
▁ocean	-3528
▁résultats	-3529
ève	-3530
▁bir	-3531
▁stay	-3532
Well	-3533
▁aim	-3534
▁coin	-3535
▁ground	-3536
▁recogn	-3537
▁statist	-3538
inf	-3539
▁flu	-3540
▁préd	-3541
▁opportunity	-3542
▁known	-3543
▁growth	-3544
▁color	-3545
▁21	-3546
▁key	-3547
▁pou	-3548
▁éner	-3549
▁infect	-3550
▁political	-3551
▁gone	-3552
▁fourn	-3553
▁weeks	-3554
▁soient	-3555
▁conversation	-3556
▁ten	-3557
▁encour	-3558
▁béb	-3559
entes	-3560
▁créat	-3561
▁haute	-3562
nements	-3563
▁laisser	-3564
▁Br	-3565
▁Tu	-3566
▁contact	-3567
In	-3568
by	-3569
▁aj	-3570
▁urb	-3571
▁termes	-3572
▁ability	-3573
▁semaine	-3574
▁pourraient	-3575
arl	-3576
▁buy	-3577
▁minute	-3578
ered	-3579
ghan	-3580
ynam	-3581
▁fight	-3582
▁terme	-3583
▁90	-3584
utiliser	-3585
▁enseign	-3586
▁résoudre	-3587
lam	-3588
▁réuss	-3589
▁extreme	-3590
▁personn	-3591
oon	-3592
ular	-3593
▁Right	-3594
▁plant	-3595
▁autant	-3596
ript	-3597
▁bén	-3598
▁challenge	-3599
alle	-3600
▁propres	-3601
▁derrière	-3602
▁risk	-3603
▁zone	-3604
onomie	-3605
▁blood	-3606
▁surpris	-3607
▁finalement	-3608
ores	-3609
ifique	-3610
▁either	-3611
▁economy	-3612
▁raisons	-3613
▁transport	-3614
▁eat	-3615
▁pied	-3616
▁poss	-3617
▁livres	-3618
▁discuss	-3619
▁national	-3620
stit	-3621
▁tent	-3622
▁contrô	-3623
▁heureux	-3624
▁instant	-3625
▁fondament	-3626
aise	-3627
▁send	-3628
▁sitting	-3629
▁maladies	-3630
aper	-3631
▁changes	-3632
▁consider	-3633
inté	-3634
▁mol	-3635
▁appe	-3636
▁quart	-3637
▁shows	-3638
▁Jap	-3639
homme	-3640
▁lost	-3641
uels	-3642
▁fast	-3643
▁institutions	-3644
▁vit	-3645
itable	-3646
▁condu	-3647
▁mêmes	-3648
ively	-3649
▁adult	-3650
▁étions	-3651
ump	-3652
▁text	-3653
▁fascin	-3654
isé	-3655
▁Tr	-3656
nant	-3657
▁miss	-3658
▁rempl	-3659
▁nombreux	-3660
▁incredible	-3661
irm	-3662
cope	-3663
▁Mal	-3664
▁Our	-3665
▁Sud	-3666
expéri	-3667
▁commerci	-3668
▁relation	-3669
iny	-3670
ried	-3671
DN	-3672
uth	-3673
▁DNA	-3674
▁symb	-3675
▁value	-3676
▁aspect	-3677
oty	-3678
▁compét	-3679
▁construit	-3680
▁ordinateur	-3681
Th	-3682
ipl	-3683
▁girl	-3684
▁areas	-3685
▁filles	-3686
▁mètres	-3687
oke	-3688
▁pièce	-3689
▁climate	-3690
▁conséqu	-3691
tect	-3692
▁aw	-3693
▁matin	-3694
▁disait	-3695
▁consomm	-3696
▁deb	-3697
▁based	-3698
▁write	-3699
agement	-3700
▁appare	-3701
▁feeling	-3702
You	-3703
rant	-3704
aster	-3705
ators	-3706
▁feet	-3707
▁parc	-3708
époque	-3709
▁white	-3710
▁classe	-3711
▁sortes	-3712
▁wouldn	-3713
▁Aujourd	-3714
▁allé	-3715
▁lire	-3716
▁capital	-3717
ulture	-3718
▁Mar	-3719
▁brill	-3720
osition	-3721
▁fro	-3722
rastru	-3723
▁cherch	-3724
▁lorsqu	-3725
▁seconde	-3726
▁différente	-3727
What	-3728
mosph	-3729
▁final	-3730
▁average	-3731
▁premiers	-3732
▁pourrions	-3733
cially	-3734
▁stress	-3735
▁morning	-3736
▁hos	-3737
▁nice	-3738
astique	-3739
▁sus	-3740
izing	-3741
▁draw	-3742
▁Regard	-3743
▁matéri	-3744
▁transf	-3745
▁journal	-3746
▁troisième	-3747
▁nombreuses	-3748
amed	-3749
▁squ	-3750
istic	-3751
▁Chin	-3752
▁morce	-3753
▁neigh	-3754
▁valeur	-3755
▁physical	-3756
▁innovation	-3757
▁Tw	-3758
▁box	-3759
▁énerg	-3760
▁Peut	-3761
▁slow	-3762
▁issue	-3763
ero	-3764
▁ras	-3765
▁auth	-3766
▁décl	-3767
▁miles	-3768
▁Afrique	-3769
▁résultat	-3770
▁soft	-3771
▁produire	-3772
▁économique	-3773
to	-3774
udes	-3775
▁brought	-3776
▁growing	-3777
amb	-3778
▁extrême	-3779
▁Ex	-3780
▁det	-3781
▁Lors	-3782
▁step	-3783
éch	-3784
▁dynam	-3785
▁pensent	-3786
▁ressources	-3787
gré	-3788
▁24	-3789
▁bottom	-3790
▁mathém	-3791
omen	-3792
▁sum	-3793
èse	-3794
iate	-3795
▁die	-3796
▁numbers	-3797
▁essayé	-3798
▁realize	-3799
▁born	-3800
▁améli	-3801
▁evolution	-3802
▁scientists	-3803
▁communication	-3804
essay	-3805
ustain	-3806
▁pensons	-3807
▁suggest	-3808
ubl	-3809
resse	-3810
▁évol	-3811
▁issues	-3812
▁Ensuite	-3813
▁attr	-3814
▁caus	-3815
▁Après	-3816
▁sudden	-3817
▁théorie	-3818
évolution	-3819
rote	-3820
▁70	-3821
▁mur	-3822
▁bene	-3823
▁spec	-3824
▁medic	-3825
▁introdu	-3826
xte	-3827
▁moléc	-3828
▁hundreds	-3829
ifi	-3830
ung	-3831
▁cri	-3832
▁ram	-3833
▁repl	-3834
ensive	-3835
▁parmi	-3836
▁inse	-3837
cks	-3838
cell	-3839
hemat	-3840
▁mole	-3841
▁littér	-3842
▁perspective	-3843
▁spir	-3844
atic	-3845
leep	-3846
▁sup	-3847
occup	-3848
▁motiv	-3849
▁obtenir	-3850
ext	-3851
ored	-3852
tout	-3853
▁term	-3854
regist	-3855
▁South	-3856
▁developed	-3857
▁literally	-3858
▁understanding	-3859
▁.	-3860
▁Lond	-3861
▁taux	-3862
▁conscience	-3863
▁Har	-3864
asion	-3865
▁tools	-3866
▁protég	-3867
▁professe	-3868
erc	-3869
▁tit	-3870
▁wrote	-3871
▁mission	-3872
▁réalisé	-3873
▁terrible	-3874
▁knowledge	-3875
▁diagn	-3876
▁forest	-3877
hi	-3878
ball	-3879
ètes	-3880
▁map	-3881
▁capit	-3882
▁consum	-3883
▁er	-3884
▁mour	-3885
▁zones	-3886
▁serious	-3887
▁développer	-3888
isent	-3889
▁exam	-3890
espère	-3891
▁alone	-3892
▁seems	-3893
▁forces	-3894
fort	-3895
head	-3896
▁uns	-3897
▁Face	-3898
▁réel	-3899
▁tomb	-3900
itesse	-3901
▁groupes	-3902
▁journée	-3903
▁mention	-3904
▁running	-3905
oe	-3906
▁stup	-3907
▁pétro	-3908
▁spread	-3909
▁domaine	-3910
▁starting	-3911
50	-3912
Ind	-3913
icy	-3914
▁tw	-3915
ified	-3916
iquer	-3917
issant	-3918
▁caract	-3919
éan	-3920
▁clear	-3921
▁commen	-3922
▁audience	-3923
▁travaillé	-3924
▁development	-3925
▁Ad	-3926
hait	-3927
ters	-3928
▁gas	-3929
▁mamm	-3930
▁optim	-3931
▁modern	-3932
▁faisant	-3933
▁meaning	-3934
▁qualité	-3935
▁subject	-3936
▁scientifique	-3937
qui	-3938
▁Plus	-3939
▁déch	-3940
▁books	-3941
▁faisait	-3942
▁viennent	-3943
▁Cong	-3944
▁fear	-3945
▁applic	-3946
▁celles	-3947
▁longue	-3948
▁montré	-3949
iod	-3950
ibly	-3951
▁nég	-3952
▁crée	-3953
▁mains	-3954
▁construction	-3955
pped	-3956
▁Sec	-3957
▁scène	-3958
▁giving	-3959
▁forward	-3960
▁chercher	-3961
ills	-3962
▁Ave	-3963
▁pal	-3964
iforn	-3965
▁movement	-3966
hod	-3967
dessus	-3968
▁guess	-3969
uls	-3970
idge	-3971
▁gars	-3972
▁prév	-3973
▁telling	-3974
▁Ab	-3975
▁stage	-3976
▁philos	-3977
▁predict	-3978
▁fundament	-3979
▁baby	-3980
▁init	-3981
▁vitesse	-3982
▁raconter	-3983
▁Dr	-3984
▁fou	-3985
▁radio	-3986
▁chemin	-3987
▁theory	-3988
▁devrions	-3989
▁téléphone	-3990
▁fail	-3991
▁soleil	-3992
▁similar	-3993
chan	-3994
inct	-3995
rist	-3996
▁Yeah	-3997
▁flow	-3998
▁histor	-3999
▁quantité	-4000
▁300	-4001
▁dead	-4002
▁soon	-4003
▁smart	-4004
ensions	-4005
▁risque	-4006
▁secret	-4007
▁souhait	-4008
▁réfléchir	-4009
▁Cl	-4010
iciens	-4011
▁install	-4012
▁voitures	-4013
enne	-4014
▁marcher	-4015
▁parties	-4016
ceive	-4017
▁outils	-4018
▁propri	-4019
ghanistan	-4020
ana	-4021
off	-4022
appe	-4023
rement	-4024
▁aliment	-4025
▁voulait	-4026
asser	-4027
ifest	-4028
▁fils	-4029
▁center	-4030
▁rester	-4031
▁visual	-4032
▁cherche	-4033
ague	-4034
ously	-4035
ainc	-4036
imag	-4037
▁feu	-4038
▁certaine	-4039
▁ang	-4040
▁aura	-4041
▁modèles	-4042
▁pourriez	-4043
ios	-4044
▁rele	-4045
▁worth	-4046
▁anyone	-4047
▁represent	-4048
▁ice	-4049
light	-4050
▁gives	-4051
▁thank	-4052
▁règles	-4053
▁Californ	-4054
com	-4055
rim	-4056
▁papier	-4057
▁talked	-4058
▁electric	-4059
▁absolutely	-4060
Je	-4061
▁Avec	-4062
▁rate	-4063
▁logic	-4064
▁multip	-4065
▁period	-4066
▁langage	-4067
ification	-4068
ased	-4069
▁méc	-4070
▁avail	-4071
▁rou	-4072
▁déterm	-4073
▁espèces	-4074
▁mathemat	-4075
▁nav	-4076
erson	-4077
glish	-4078
▁track	-4079
▁English	-4080
aly	-4081
vest	-4082
▁Ang	-4083
▁var	-4084
élect	-4085
▁réce	-4086
▁restaur	-4087
iellement	-4088
▁positive	-4089
zz	-4090
the	-4091
▁197	-4092
▁bomb	-4093
▁gent	-4094
ashing	-4095
▁content	-4096
otions	-4097
▁achie	-4098
▁confiance	-4099
environnement	-4100
ett	-4101
▁preu	-4102
▁road	-4103
▁soir	-4104
▁rendu	-4105
pecially	-4106
▁reprodu	-4107
▁industry	-4108
riv	-4109
▁ren	-4110
▁Nord	-4111
▁batt	-4112
▁song	-4113
▁showed	-4114
▁pauvres	-4115
▁Facebook	-4116
▁cars	-4117
▁pull	-4118
▁durant	-4119
▁bâtiment	-4120
▁religion	-4121
▁psycholog	-4122
▁pros	-4123
▁Etats	-4124
▁Notre	-4125
▁tendance	-4126
abil	-4127
▁Dav	-4128
ormes	-4129
▁libert	-4130
▁online	-4131
rice	-4132
▁succès	-4133
▁distance	-4134
fs	-4135
▁gag	-4136
▁mut	-4137
ustral	-4138
▁assis	-4139
▁girls	-4140
▁travel	-4141
▁moments	-4142
▁challeng	-4143
ettez	-4144
liqué	-4145
▁With	-4146
▁deli	-4147
▁demi	-4148
issions	-4149
▁utilisant	-4150
▁rid	-4151
▁Inde	-4152
▁agric	-4153
▁compagn	-4154
▁matière	-4155
▁sustain	-4156
urt	-4157
▁parad	-4158
▁perdu	-4159
▁région	-4160
▁vé	-4161
▁hyp	-4162
▁grad	-4163
▁redu	-4164
▁rôle	-4165
aments	-4166
▁adapt	-4167
▁solve	-4168
istance	-4169
▁allait	-4170
▁surtout	-4171
▁discovered	-4172
▁bonnes	-4173
▁savent	-4174
▁developing	-4175
▁traitement	-4176
orith	-4177
urity	-4178
▁étant	-4179
▁attack	-4180
▁vivent	-4181
▁creating	-4182
▁Sur	-4183
▁route	-4184
▁constr	-4185
▁meilleurs	-4186
mble	-4187
▁eye	-4188
▁bons	-4189
▁observ	-4190
▁conserv	-4191
▁recently	-4192
▁sea	-4193
▁cach	-4194
▁jeux	-4195
▁époque	-4196
eté	-4197
▁Ici	-4198
▁ele	-4199
leurs	-4200
▁save	-4201
▁among	-4202
▁resources	-4203
▁aren	-4204
▁sept	-4205
▁kilom	-4206
▁reasons	-4207
▁conférence	-4208
▁recherches	-4209
▁révolution	-4210
eux	-4211
inst	-4212
asing	-4213
ester	-4214
▁blog	-4215
▁benef	-4216
▁designed	-4217
▁experien	-4218
▁ordinateurs	-4219
ips	-4220
onie	-4221
▁fire	-4222
import	-4223
▁seront	-4224
aissance	-4225
▁Bl	-4226
ètre	-4227
▁pil	-4228
▁sit	-4229
▁vent	-4230
▁playing	-4231
▁pouvaient	-4232
resp	-4233
▁défi	-4234
▁utilise	-4235
ôte	-4236
ancé	-4237
▁prise	-4238
▁attend	-4239
▁mondial	-4240
gest	-4241
icon	-4242
like	-4243
▁farm	-4244
▁truth	-4245
▁voice	-4246
▁signal	-4247
▁remarqu	-4248
tenir	-4249
▁fini	-4250
▁current	-4251
5,	-4252
iot	-4253
▁By	-4254
▁rue	-4255
atell	-4256
▁occup	-4257
▁objets	-4258
▁réussi	-4259
économie	-4260
acle	-4261
▁196	-4262
veral	-4263
▁rare	-4264
▁altern	-4265
▁carbon	-4266
▁report	-4267
▁available	-4268
.,	-4269
uter	-4270
yond	-4271
▁Mich	-4272
tu	-4273
▁1,	-4274
▁poser	-4275
▁rouge	-4276
▁strat	-4277
▁projets	-4278
▁document	-4279
ya	-4280
ède	-4281
uits	-4282
▁bras	-4283
▁grav	-4284
▁cover	-4285
▁moral	-4286
▁moyenne	-4287
▁génération	-4288
▁politiques	-4289
▁â	-4290
eth	-4291
rom	-4292
▁deg	-4293
▁tiny	-4294
▁formes	-4295
impression	-4296
▁continuer	-4297
▁especially	-4298
▁incredibly	-4299
ompl	-4300
▁tap	-4301
▁asking	-4302
▁groups	-4303
▁produce	-4304
ey	-4305
cal	-4306
▁mir	-4307
onstr	-4308
itaire	-4309
▁vérité	-4310
auff	-4311
oure	-4312
▁grat	-4313
▁knows	-4314
▁démocrat	-4315
▁pratique	-4316
▁bud	-4317
▁dipl	-4318
erence	-4319
▁mécan	-4320
▁peine	-4321
▁général	-4322
yle	-4323
▁satell	-4324
▁extrêmement	-4325
go	-4326
▁ult	-4327
ulaire	-4328
▁haven	-4329
étaient	-4330
val	-4331
▁appren	-4332
▁dépens	-4333
▁digital	-4334
▁computers	-4335
yl	-4336
con	-4337
▁moder	-4338
▁search	-4339
▁découvrir	-4340
▁structures	-4341
ID	-4342
▁i	-4343
ght	-4344
ify	-4345
▁sleep	-4346
▁trucs	-4347
▁insect	-4348
nels	-4349
room	-4350
▁San	-4351
▁anc	-4352
ently	-4353
▁shape	-4354
▁involved	-4355
raî	-4356
▁Co	-4357
▁sho	-4358
▁yes	-4359
icians	-4360
▁crise	-4361
▁drive	-4362
▁Certains	-4363
▁changing	-4364
▁evidence	-4365
▁pourtant	-4366
2,	-4367
état	-4368
▁Cent	-4369
▁trib	-4370
▁spéci	-4371
▁bigger	-4372
▁justice	-4373
▁medical	-4374
▁conception	-4375
▁generation	-4376
▁street	-4377
▁surviv	-4378
▁journey	-4379
▁sociaux	-4380
▁architect	-4381
▁condition	-4382
oust	-4383
▁mine	-4384
▁becomes	-4385
où	-4386
roit	-4387
▁pictures	-4388
izar	-4389
agues	-4390
▁emerg	-4391
▁faite	-4392
▁capables	-4393
▁relative	-4394
▁changements	-4395
▁,	-4396
▁Brit	-4397
▁mechan	-4398
▁sociétés	-4399
imm	-4400
▁précis	-4401
▁putting	-4402
agé	-4403
aill	-4404
anda	-4405
oring	-4406
▁doute	-4407
▁espèce	-4408
▁infrastru	-4409
▁représente	-4410
cop	-4411
▁Gu	-4412
▁gaz	-4413
▁safe	-4414
▁dirige	-4415
▁terrain	-4416
▁towards	-4417
▁efficace	-4418
ops	-4419
aisse	-4420
▁reçu	-4421
expérience	-4422
▁Pl	-4423
▁lit	-4424
imate	-4425
lation	-4426
▁defin	-4427
▁lived	-4428
▁choice	-4429
▁climatique	-4430
aim	-4431
▁Sc	-4432
▁Qui	-4433
▁dang	-4434
▁basic	-4435
▁Chaque	-4436
▁beyond	-4437
▁bureau	-4438
▁compet	-4439
▁visage	-4440
▁période	-4441
8,	-4442
ery	-4443
▁several	-4444
▁algorith	-4445
des	-4446
▁Rob	-4447
pping	-4448
▁Fin	-4449
▁vul	-4450
llect	-4451
▁chans	-4452
airs	-4453
fois	-4454
▁emotion	-4455
▁pétrole	-4456
9,	-4457
▁état	-4458
▁collèg	-4459
▁includ	-4460
▁prochaine	-4461
▁médicaments	-4462
▁international	-4463
ADN	-4464
énom	-4465
▁War	-4466
▁ami	-4467
arily	-4468
human	-4469
▁solar	-4470
▁Chinese	-4471
▁function	-4472
▁Ag	-4473
▁tax	-4474
isson	-4475
ource	-4476
issage	-4477
▁analys	-4478
▁drug	-4479
▁gest	-4480
▁drugs	-4481
▁likely	-4482
▁Pendant	-4483
▁mauvaise	-4484
▁neighbor	-4485
étr	-4486
apes	-4487
heur	-4488
▁Yes	-4489
▁rock	-4490
isible	-4491
▁First	-4492
▁blanc	-4493
▁manger	-4494
idemment	-4495
▁Imaginez	-4496
mar	-4497
écu	-4498
▁Of	-4499
rown	-4500
▁venu	-4501
▁necess	-4502
▁potential	-4503
osé	-4504
yst	-4505
▁voie	-4506
▁bizar	-4507
▁citiz	-4508
▁suivre	-4509
▁entreprene	-4510
!"	-4511
1,	-4512
expl	-4513
▁Mus	-4514
▁hab	-4515
▁unf	-4516
▁appr	-4517
▁died	-4518
ishing	-4519
respond	-4520
▁Mc	-4521
▁employ	-4522
▁imaginer	-4523
▁utilisent	-4524
aul	-4525
xim	-4526
▁CO	-4527
▁tâ	-4528
▁foss	-4529
▁mode	-4530
▁moyens	-4531
▁sounds	-4532
▁express	-4533
▁convainc	-4534
▁rencontré	-4535
▁ep	-4536
term	-4537
▁Ken	-4538
▁cru	-4539
▁neg	-4540
▁Même	-4541
▁evol	-4542
▁writing	-4543
▁correspond	-4544
▁communities	-4545
▁expériences	-4546
tem	-4547
▁bed	-4548
▁camera	-4549
vi	-4550
uly	-4551
▁Mex	-4552
▁frag	-4553
▁breat	-4554
pendant	-4555
▁Christ	-4556
▁accord	-4557
▁App	-4558
▁boug	-4559
▁trust	-4560
▁dimensions	-4561
ny	-4562
enu	-4563
itif	-4564
▁mig	-4565
▁pen	-4566
isant	-4567
ocracy	-4568
▁office	-4569
▁schools	-4570
ica	-4571
win	-4572
igner	-4573
océan	-4574
▁court	-4575
▁charge	-4576
▁droits	-4577
▁espace	-4578
▁volont	-4579
▁Beaucoup	-4580
▁réaliser	-4581
▁software	-4582
éra	-4583
▁David	-4584
▁croire	-4585
▁mém	-4586
igher	-4587
▁scul	-4588
idents	-4589
▁citoy	-4590
▁couleur	-4591
▁general	-4592
orge	-4593
ielle	-4594
▁spéc	-4595
▁arrêt	-4596
▁plais	-4597
▁somme	-4598
▁speed	-4599
▁artist	-4600
▁device	-4601
▁notion	-4602
▁performance	-4603
▁Mo	-4604
ounds	-4605
▁dimin	-4606
▁rules	-4607
▁revolution	-4608
iat	-4609
cing	-4610
▁bénéf	-4611
uvre	-4612
▁loi	-4613
▁mount	-4614
▁résol	-4615
▁total	-4616
▁article	-4617
▁quality	-4618
▁examples	-4619
Inde	-4620
▁nine	-4621
▁sand	-4622
▁Maybe	-4623
▁études	-4624
▁accident	-4625
ief	-4626
ray	-4627
hors	-4628
▁bact	-4629
▁join	-4630
▁sauv	-4631
▁stim	-4632
▁anybody	-4633
▁entreprise	-4634
aj	-4635
enez	-4636
uler	-4637
▁coût	-4638
▁print	-4639
▁higher	-4640
▁enregist	-4641
▁absolument	-4642
anz	-4643
▁ox	-4644
reté	-4645
▁Act	-4646
▁near	-4647
▁After	-4648
▁cross	-4649
▁return	-4650
▁starts	-4651
▁nut	-4652
▁océ	-4653
▁tir	-4654
après	-4655
avère	-4656
▁cuis	-4657
▁gagn	-4658
▁savais	-4659
novation	-4660
▁éléments	-4661
▁interview	-4662
▁récemment	-4663
oo	-4664
▁Ok	-4665
more	-4666
éros	-4667
▁Bill	-4668
▁Deux	-4669
▁okay	-4670
▁pire	-4671
▁permettre	-4672
yez	-4673
▁win	-4674
cteur	-4675
▁intr	-4676
▁wish	-4677
▁Twitter	-4678
▁favorite	-4679
▁expliquer	-4680
yr	-4681
▁oh	-4682
▁ut	-4683
▁peace	-4684
actions	-4685
▁double	-4686
▁screen	-4687
▁pensais	-4688
▁showing	-4689
▁totalement	-4690
▁Ob	-4691
ners	-4692
▁400	-4693
mission	-4694
▁batter	-4695
▁Lorsque	-4696
▁standard	-4697
ada	-4698
alk	-4699
anch	-4700
ford	-4701
▁dér	-4702
▁hit	-4703
▁enfin	-4704
▁étude	-4705
▁rights	-4706
▁appelée	-4707
▁particularly	-4708
isf	-4709
▁boy	-4710
▁suc	-4711
▁éle	-4712
ublic	-4713
▁fine	-4714
Amérique	-4715
▁revenir	-4716
▁walking	-4717
▁complexe	-4718
▁certainly	-4719
▁uniquement	-4720
▁plac	-4721
▁cycle	-4722
▁phénom	-4723
▁biggest	-4724
▁répondu	-4725
▁National	-4726
▁sentiment	-4727
ges	-4728
▁Pr	-4729
▁soi	-4730
ained	-4731
avenir	-4732
uments	-4733
▁Where	-4734
▁dinos	-4735
▁liste	-4736
▁moved	-4737
▁disant	-4738
▁carbone	-4739
▁lesquelles	-4740
ube	-4741
aging	-4742
osing	-4743
▁beau	-4744
▁onto	-4745
▁finir	-4746
▁nucle	-4747
▁plate	-4748
▁totally	-4749
▁transpar	-4750
ison	-4751
orig	-4752
▁cris	-4753
ibility	-4754
▁bacter	-4755
▁combin	-4756
▁entend	-4757
iversity	-4758
▁largest	-4759
▁scientific	-4760
▁lut	-4761
▁craz	-4762
▁North	-4763
▁bless	-4764
▁clean	-4765
▁films	-4766
▁exciting	-4767
▁character	-4768
▁obviously	-4769
ami	-4770
▁amb	-4771
▁chiffres	-4772
▁Afghanistan	-4773
son	-4774
▁Cor	-4775
▁pai	-4776
▁huit	-4777
▁Sch	-4778
▁hun	-4779
▁coop	-4780
▁vieux	-4781
▁répondre	-4782
▁role	-4783
▁vraie	-4784
▁dispon	-4785
▁profonde	-4786
cep	-4787
▁rat	-4788
▁causes	-4789
▁further	-4790
▁considér	-4791
▁extremely	-4792
▁techniques	-4793
▁transformer	-4794
▁peup	-4795
▁dépend	-4796
hter	-4797
▁Tod	-4798
▁dès	-4799
▁hot	-4800
▁2000	-4801
▁cogn	-4802
▁sein	-4803
▁soul	-4804
▁wants	-4805
▁prépar	-4806
▁intelligence	-4807
how	-4808
▁aid	-4809
▁tox	-4810
▁autor	-4811
▁telle	-4812
▁langue	-4813
▁mobile	-4814
▁threat	-4815
icule	-4816
▁City	-4817
▁circul	-4818
▁médias	-4819
▁plants	-4820
▁response	-4821
▁teachers	-4822
▁né	-4823
come	-4824
▁aband	-4825
ruption	-4826
▁Washing	-4827
▁results	-4828
7,	-4829
▁led	-4830
▁donn	-4831
▁fair	-4832
▁qual	-4833
▁meant	-4834
▁écrire	-4835
▁surprise	-4836
▁deviennent	-4837
▁Dep	-4838
▁Who	-4839
▁hour	-4840
▁chimp	-4841
▁connu	-4842
▁former	-4843
▁suivante	-4844
▁atteindre	-4845
▁materials	-4846
▁cad	-4847
▁ner	-4848
▁écl	-4849
▁aide	-4850
▁isol	-4851
▁purp	-4852
▁vend	-4853
espoir	-4854
▁ready	-4855
▁sites	-4856
▁rappel	-4857
▁conflict	-4858
▁Washington	-4859
▁communautés	-4860
▁individuals	-4861
ço	-4862
▁Av	-4863
▁Ira	-4864
▁quot	-4865
ricité	-4866
▁glace	-4867
▁devait	-4868
▁nobody	-4869
▁pauvreté	-4870
▁intellect	-4871
oid	-4872
▁tôt	-4873
▁apart	-4874
▁magaz	-4875
▁façons	-4876
▁mental	-4877
▁bonheur	-4878
▁prototy	-4879
▁possibil	-4880
▁projects	-4881
lin	-4882
pit	-4883
agir	-4884
▁mél	-4885
▁fill	-4886
▁regardé	-4887
▁impression	-4888
tein	-4889
▁Rich	-4890
▁pose	-4891
▁rain	-4892
▁belle	-4893
▁crazy	-4894
▁pages	-4895
ication	-4896
▁Regardez	-4897
▁exemples	-4898
▁hospital	-4899
▁eventually	-4900
▁everywhere	-4901
▁laboratoire	-4902
▁iP	-4903
iller	-4904
▁plantes	-4905
▁développé	-4906
▁protection	-4907
▁architecture	-4908
ows	-4909
▁ded	-4910
▁swe	-4911
▁cham	-4912
▁jobs	-4913
▁skin	-4914
▁notice	-4915
▁sculpt	-4916
▁stratég	-4917
▁student	-4918
▁programm	-4919
ror	-4920
▁Dar	-4921
verty	-4922
▁scan	-4923
▁immed	-4924
▁stock	-4925
▁décenn	-4926
▁ouvert	-4927
▁tempér	-4928
▁liberté	-4929
▁poverty	-4930
hib	-4931
ley	-4932
mic	-4933
▁Me	-4934
▁TV	-4935
▁goal	-4936
▁plat	-4937
▁tort	-4938
▁synth	-4939
▁except	-4940
paravant	-4941
▁allowed	-4942
▁choisir	-4943
▁security	-4944
▁connected	-4945
akes	-4946
aving	-4947
▁anti	-4948
▁link	-4949
entrepr	-4950
▁création	-4951
▁rassembl	-4952
▁watching	-4953
▁Any	-4954
▁caf	-4955
appel	-4956
▁Pers	-4957
▁cens	-4958
uelles	-4959
▁separ	-4960
▁stopp	-4961
▁étonn	-4962
▁confront	-4963
▁démocratie	-4964
▁fat	-4965
oming	-4966
▁Most	-4967
▁insp	-4968
▁push	-4969
ground	-4970
▁gènes	-4971
▁named	-4972
▁supposed	-4973
rentissage	-4974
iend	-4975
▁jud	-4976
icient	-4977
onnect	-4978
▁prior	-4979
▁dehors	-4980
▁fabric	-4981
▁models	-4982
▁African	-4983
▁context	-4984
▁partage	-4985
industrie	-4986
▁familles	-4987
▁manifest	-4988
té	-4989
cule	-4990
wood	-4991
êche	-4992
▁amp	-4993
▁riv	-4994
▁cases	-4995
▁games	-4996
▁strate	-4997
▁littéralement	-4998
cteurs	-4999
▁birth	-5000
▁carry	-5001
▁dites	-5002
▁atteint	-5003
▁sociale	-5004
▁essentially	-5005
lt	-5006
ech	-5007
▁chin	-5008
▁inde	-5009
▁note	-5010
▁race	-5011
▁stick	-5012
▁trees	-5013
▁solaire	-5014
▁traiter	-5015
onte	-5016
▁urban	-5017
▁combat	-5018
▁micros	-5019
▁courage	-5020
▁premières	-5021
▁technique	-5022
iés	-5023
▁Franc	-5024
▁accès	-5025
▁merci	-5026
▁sépar	-5027
▁gagner	-5028
▁region	-5029
▁creative	-5030
▁incroyablement	-5031
We	-5032
ctor	-5033
▁Don	-5034
odies	-5035
▁Arab	-5036
▁domin	-5037
▁forêt	-5038
▁minds	-5039
▁soins	-5040
▁waste	-5041
▁central	-5042
▁improve	-5043
▁molecul	-5044
cs	-5045
ged	-5046
réh	-5047
▁sn	-5048
ians	-5049
▁chemical	-5050
▁designers	-5051
▁150	-5052
▁cos	-5053
▁Even	-5054
▁grew	-5055
▁laug	-5056
▁tells	-5057
▁école	-5058
▁conclus	-5059
▁objects	-5060
▁cultures	-5061
▁directement	-5062
▁rom	-5063
▁door	-5064
▁radi	-5065
vision	-5066
▁libre	-5067
▁shown	-5068
▁doctor	-5069
▁esprit	-5070
▁actions	-5071
innovation	-5072
▁internation	-5073
fin	-5074
anim	-5075
ander	-5076
▁parten	-5077
▁satisf	-5078
rial	-5079
useum	-5080
▁tree	-5081
▁analy	-5082
▁trial	-5083
▁permis	-5084
▁sentir	-5085
▁écoles	-5086
▁fallait	-5087
▁including	-5088
ev	-5089
ché	-5090
oré	-5091
▁hyd	-5092
verse	-5093
▁lois	-5094
onstru	-5095
▁blind	-5096
▁stars	-5097
avaient	-5098
▁choose	-5099
▁dessin	-5100
▁hypoth	-5101
▁massive	-5102
▁families	-5103
▁médecine	-5104
ordinateur	-5105
▁utilisons	-5106
oie	-5107
ares	-5108
▁cer	-5109
▁erre	-5110
▁séqu	-5111
▁Japan	-5112
▁échelle	-5113
heureusement	-5114
▁fundamental	-5115
▁extraordinary	-5116
bs	-5117
▁NA	-5118
▁bank	-5119
▁doig	-5120
▁tests	-5121
enfants	-5122
▁prenez	-5123
▁sauver	-5124
▁galaxies	-5125
▁surveill	-5126
▁kilomètres	-5127
▁importantes	-5128
▁extraordinaire	-5129
ola	-5130
ège	-5131
▁late	-5132
▁oubl	-5133
▁peau	-5134
▁bunch	-5135
▁concer	-5136
▁crimin	-5137
IV	-5138
ulf	-5139
érêt	-5140
▁fit	-5141
cient	-5142
ption	-5143
▁movie	-5144
▁worse	-5145
▁thousand	-5146
▁buildings	-5147
edom	-5148
▁stri	-5149
▁Today	-5150
▁détru	-5151
▁proté	-5152
▁taught	-5153
▁wealth	-5154
▁dangere	-5155
▁enj	-5156
▁eth	-5157
▁gam	-5158
▁vas	-5159
eness	-5160
▁rout	-5161
▁dispos	-5162
▁memory	-5163
izations	-5164
▁cellule	-5165
▁membres	-5166
▁réduire	-5167
▁auparavant	-5168
▁possibilité	-5169
▁travaillent	-5170
image	-5171
▁Paul	-5172
▁bate	-5173
▁wife	-5174
▁imméd	-5175
▁brains	-5176
▁importe	-5177
▁réseaux	-5178
▁democracy	-5179
▁Sw	-5180
odes	-5181
▁tri	-5182
ortex	-5183
▁attach	-5184
▁faster	-5185
▁killed	-5186
▁prennent	-5187
IT	-5188
del	-5189
for	-5190
ging	-5191
erman	-5192
▁address	-5193
▁excited	-5194
▁standing	-5195
▁conscious	-5196
▁matériaux	-5197
yc	-5198
aign	-5199
iels	-5200
▁Mes	-5201
▁obl	-5202
▁vot	-5203
▁astr	-5204
▁lower	-5205
▁match	-5206
fer	-5207
▁Bang	-5208
▁toil	-5209
▁ended	-5210
▁nuclé	-5211
▁payer	-5212
▁allows	-5213
▁crisis	-5214
▁dollar	-5215
▁manque	-5216
▁morceau	-5217
▁happiness	-5218
▁somewhere	-5219
onent	-5220
▁lose	-5221
▁webs	-5222
▁above	-5223
▁genes	-5224
▁génial	-5225
▁vivons	-5226
▁simples	-5227
▁contexte	-5228
▁suddenly	-5229
ortunately	-5230
▁Ben	-5231
▁ray	-5232
ended	-5233
irurg	-5234
▁hors	-5235
▁sorts	-5236
▁temper	-5237
▁termin	-5238
▁acheter	-5239
▁college	-5240
▁activity	-5241
▁protéger	-5242
▁continent	-5243
ha	-5244
▁dix	-5245
▁lat	-5246
▁colon	-5247
▁ingén	-5248
ivalent	-5249
▁perman	-5250
▁spirit	-5251
atures	-5252
▁destru	-5253
▁imagin	-5254
▁larger	-5255
▁vivant	-5256
▁medicine	-5257
▁mou	-5258
▁pouss	-5259
▁finding	-5260
▁decision	-5261
▁increase	-5262
▁commencent	-5263
▁distribution	-5264
▁gouvernements	-5265
▁35	-5266
▁Te	-5267
▁cold	-5268
▁Those	-5269
▁masse	-5270
▁respond	-5271
▁approche	-5272
2.	-5273
▁Là	-5274
back	-5275
▁star	-5276
▁objet	-5277
▁truly	-5278
aujourd	-5279
▁pensée	-5280
▁suivant	-5281
▁survive	-5282
▁évident	-5283
▁constant	-5284
▁pourrais	-5285
raz	-5286
élè	-5287
ender	-5288
▁Mont	-5289
▁acqu	-5290
▁active	-5291
humanité	-5292
▁secondes	-5293
▁nécessaire	-5294
▁successful	-5295
4,	-5296
bien	-5297
cape	-5298
▁pén	-5299
▁Tous	-5300
▁Will	-5301
▁amen	-5302
▁fing	-5303
▁sequ	-5304
▁faits	-5305
▁products	-5306
igu	-5307
str	-5308
delà	-5309
edia	-5310
hern	-5311
▁Jus	-5312
ôpital	-5313
échelle	-5314
▁arrière	-5315
▁experts	-5316
▁teacher	-5317
▁caractér	-5318
▁HIV	-5319
urent	-5320
▁lent	-5321
▁sell	-5322
▁afford	-5323
▁launch	-5324
▁mourir	-5325
▁puissance	-5326
▁effectivement	-5327
ifié	-5328
▁Web	-5329
▁boî	-5330
▁hop	-5331
▁cand	-5332
▁prêt	-5333
▁infin	-5334
▁oppos	-5335
▁parti	-5336
▁indeed	-5337
▁intégr	-5338
▁remark	-5339
▁complicated	-5340
bal	-5341
dom	-5342
isés	-5343
▁gri	-5344
▁rej	-5345
▁phen	-5346
though	-5347
▁earth	-5348
▁traditional	-5349
▁organization	-5350
mon	-5351
▁Isra	-5352
▁drog	-5353
▁luck	-5354
▁warm	-5355
▁clair	-5356
▁coûte	-5357
université	-5358
▁certainement	-5359
rase	-5360
iliar	-5361
oiles	-5362
▁burn	-5363
▁mang	-5364
ormais	-5365
▁sympt	-5366
▁disons	-5367
▁Austral	-5368
▁leadership	-5369
der	-5370
esth	-5371
▁dam	-5372
▁spr	-5373
▁pack	-5374
▁paix	-5375
▁actual	-5376
▁policy	-5377
éricains	-5378
▁achieve	-5379
▁atmosph	-5380
▁messages	-5381
ére	-5382
cipe	-5383
▁Look	-5384
▁capt	-5385
▁ferm	-5386
▁nord	-5387
▁rand	-5388
ending	-5389
▁older	-5390
archite	-5391
▁faible	-5392
▁Laissez	-5393
▁courant	-5394
▁studies	-5395
▁étudier	-5396
▁military	-5397
▁ju	-5398
▁sky	-5399
▁vécu	-5400
aliste	-5401
▁crime	-5402
▁enjoy	-5403
▁panne	-5404
▁citizens	-5405
▁phy	-5406
▁hall	-5407
cience	-5408
▁forms	-5409
▁workers	-5410
▁concerne	-5411
▁formation	-5412
apprentissage	-5413
étud	-5414
▁Dan	-5415
▁nan	-5416
oking	-5417
▁kept	-5418
▁ayant	-5419
▁proche	-5420
ensemble	-5421
▁portable	-5422
électricité	-5423
▁intelligent	-5424
3,	-5425
yth	-5426
▁Are	-5427
▁obt	-5428
▁East	-5429
▁morts	-5430
▁author	-5431
▁transformation	-5432
dy	-5433
icial	-5434
▁angl	-5435
▁charg	-5436
▁lands	-5437
▁recomm	-5438
▁deliver	-5439
▁intéressante	-5440
▁infrastructure	-5441
itor	-5442
▁Col	-5443
raight	-5444
▁souris	-5445
▁usually	-5446
▁merveilleux	-5447
▁har	-5448
▁lif	-5449
appro	-5450
▁bébé	-5451
▁wild	-5452
▁grandi	-5453
▁parent	-5454
ographie	-5455
▁progrès	-5456
▁straight	-5457
pro	-5458
éries	-5459
▁nuclear	-5460
▁reading	-5461
▁neurones	-5462
▁professeur	-5463
ky	-5464
▁Ed	-5465
▁km	-5466
▁pun	-5467
▁Like	-5468
▁révé	-5469
aurais	-5470
▁Somet	-5471
▁symbol	-5472
eles	-5473
iced	-5474
ician	-5475
▁élev	-5476
équipe	-5477
▁manip	-5478
▁phenomen	-5479
▁bur	-5480
▁corp	-5481
▁mist	-5482
▁pieces	-5483
▁chirurg	-5484
▁specific	-5485
▁training	-5486
▁electricity	-5487
pri	-5488
grad	-5489
▁dog	-5490
▁chant	-5491
▁plong	-5492
▁viens	-5493
▁accompl	-5494
▁somehow	-5495
fl	-5496
eren	-5497
aison	-5498
▁chaî	-5499
▁heav	-5500
▁zero	-5501
▁lines	-5502
▁series	-5503
▁smaller	-5504
▁diagnost	-5505
▁recognize	-5506
▁Ca	-5507
▁adm	-5508
▁choc	-5509
▁ciel	-5510
▁cord	-5511
▁strugg	-5512
▁étrang	-5513
▁collègues	-5514
▁Big	-5515
▁Bro	-5516
▁chef	-5517
▁faux	-5518
▁trem	-5519
▁yeah	-5520
▁enorm	-5521
▁ouver	-5522
▁cartes	-5523
▁institution	-5524
▁significant	-5525
ago	-5526
▁rêve	-5527
▁upon	-5528
allais	-5529
▁Second	-5530
▁beings	-5531
▁anymore	-5532
▁retrouv	-5533
▁personnel	-5534
aqu	-5535
ara	-5536
cipl	-5537
▁throw	-5538
▁devoir	-5539
▁chanson	-5540
▁sources	-5541
▁collective	-5542
▁commercial	-5543
uré	-5544
▁Su	-5545
▁MIT	-5546
▁Per	-5547
▁aime	-5548
▁alive	-5549
instein	-5550
▁private	-5551
▁trouble	-5552
▁influence	-5553
▁connaissance	-5554
aint	-5555
isco	-5556
▁inj	-5557
▁mas	-5558
enses	-5559
raient	-5560
▁garder	-5561
▁revenu	-5562
▁poisson	-5563
▁microbes	-5564
▁souvenir	-5565
▁dangerous	-5566
▁neighborhood	-5567
▁Fl	-5568
▁lu	-5569
▁ouv	-5570
▁desp	-5571
issait	-5572
▁adopt	-5573
▁board	-5574
▁effort	-5575
▁skills	-5576
▁slight	-5577
▁tomber	-5578
▁transl	-5579
alisation	-5580
▁critical	-5581
▁patterns	-5582
ribe	-5583
▁sop	-5584
phone	-5585
▁loved	-5586
▁physi	-5587
▁tirer	-5588
▁précéd	-5589
▁Richard	-5590
▁bizarre	-5591
▁compréh	-5592
▁healthy	-5593
▁seconds	-5594
▁réponses	-5595
▁trouvent	-5596
▁fabriquer	-5597
▁potentiel	-5598
▁âg	-5599
▁targ	-5600
minist	-5601
riques	-5602
▁Kenya	-5603
▁frapp	-5604
▁weren	-5605
▁apport	-5606
▁please	-5607
iversité	-5608
▁biology	-5609
▁finance	-5610
▁propert	-5611
▁familiar	-5612
▁sciences	-5613
importance	-5614
▁decisions	-5615
▁imagination	-5616
▁Sup	-5617
▁town	-5618
arlier	-5619
▁poids	-5620
▁career	-5621
▁vendre	-5622
▁naturel	-5623
▁Americans	-5624
▁tun	-5625
▁céré	-5626
▁entrer	-5627
▁procéd	-5628
▁provide	-5629
▁becoming	-5630
▁collabor	-5631
▁discours	-5632
▁décision	-5633
▁concevoir	-5634
▁corruption	-5635
▁perception	-5636
Ar	-5637
Is	-5638
ee	-5639
uille	-5640
venir	-5641
▁liqu	-5642
aliser	-5643
▁exerc	-5644
▁price	-5645
étiques	-5646
▁couver	-5647
▁freedom	-5648
▁physics	-5649
▁valeurs	-5650
▁Personne	-5651
▁University	-5652
car	-5653
nés	-5654
tra	-5655
lock	-5656
▁Min	-5657
▁véh	-5658
iling	-5659
▁famous	-5660
▁tourner	-5661
▁bacteria	-5662
▁treatment	-5663
No	-5664
aume	-5665
▁Iran	-5666
▁dram	-5667
▁occur	-5668
▁arbres	-5669
▁budget	-5670
▁effets	-5671
ailleurs	-5672
▁laissez	-5673
▁plastic	-5674
▁suppose	-5675
▁biologie	-5676
▁entendre	-5677
▁majorité	-5678
▁décisions	-5679
▁immédiate	-5680
▁increasing	-5681
ior	-5682
umb	-5683
aman	-5684
▁aille	-5685
▁explo	-5686
aughter	-5687
▁citoyens	-5688
ût	-5689
ieur	-5690
time	-5691
améli	-5692
arter	-5693
▁célè	-5694
▁surr	-5695
iately	-5696
▁account	-5697
▁clearly	-5698
▁effective	-5699
6,	-5700
▁unc	-5701
ieuse	-5702
▁amus	-5703
▁harm	-5704
▁voulu	-5705
▁conduit	-5706
▁doctors	-5707
▁matérie	-5708
▁waiting	-5709
▁Amérique	-5710
▁anywhere	-5711
▁diseases	-5712
dire	-5713
▁crow	-5714
▁lien	-5715
▁Times	-5716
▁agree	-5717
origine	-5718
▁numéro	-5719
▁pièces	-5720
▁remind	-5721
▁riches	-5722
▁suffis	-5723
▁earlier	-5724
▁revenus	-5725
▁construis	-5726
▁devraient	-5727
▁invisible	-5728
▁listening	-5729
lim	-5730
▁mi	-5731
ceed	-5732
▁oise	-5733
▁limit	-5734
▁trick	-5735
érieure	-5736
▁bodies	-5737
▁capture	-5738
▁pousser	-5739
▁written	-5740
▁carrière	-5741
▁milliard	-5742
▁expensive	-5743
uns	-5744
▁Los	-5745
eless	-5746
onner	-5747
êcher	-5748
▁sexe	-5749
mettre	-5750
▁costs	-5751
▁forth	-5752
▁navig	-5753
akistan	-5754
endroit	-5755
▁connex	-5756
▁aspects	-5757
▁neurons	-5758
▁pouvions	-5759
loy	-5760
▁fi	-5761
roph	-5762
émie	-5763
▁dév	-5764
▁shot	-5765
▁Niger	-5766
▁désir	-5767
▁lancé	-5768
▁subst	-5769
▁frustr	-5770
▁désormais	-5771
cy	-5772
bon	-5773
unt	-5774
▁1.	-5775
▁45	-5776
▁Roy	-5777
erait	-5778
▁Park	-5779
▁êtres	-5780
▁clients	-5781
▁comfort	-5782
▁internet	-5783
▁fonctionner	-5784
ded	-5785
tar	-5786
anes	-5787
▁Nob	-5788
▁mix	-5789
acles	-5790
▁cust	-5791
▁formid	-5792
▁phrase	-5793
▁weight	-5794
▁genetic	-5795
▁willing	-5796
▁throughout	-5797
▁governments	-5798
▁whe	-5799
ignes	-5800
ulate	-5801
▁date	-5802
▁neuf	-5803
▁vast	-5804
▁minim	-5805
▁worry	-5806
▁campagne	-5807
▁greatest	-5808
▁painting	-5809
▁puissent	-5810
▁économie	-5811
▁faisaient	-5812
▁philosoph	-5813
pes	-5814
▁toi	-5815
alism	-5816
iding	-5817
▁opin	-5818
▁estim	-5819
▁notes	-5820
▁Darwin	-5821
▁random	-5822
▁durable	-5823
▁médecin	-5824
▁argument	-5825
▁facilement	-5826
▁permettent	-5827
▁collaboration	-5828
alt	-5829
lled	-5830
rees	-5831
ortion	-5832
▁Which	-5833
▁glass	-5834
▁Another	-5835
▁describ	-5836
▁financi	-5837
▁strange	-5838
▁original	-5839
▁challenges	-5840
hom	-5841
vard	-5842
▁bag	-5843
▁reb	-5844
ueill	-5845
urant	-5846
▁jump	-5847
▁mett	-5848
▁magazine	-5849
▁contrôler	-5850
▁voulaient	-5851
▁collection	-5852
▁fol	-5853
aries	-5854
▁voler	-5855
aissent	-5856
▁auxque	-5857
▁sophist	-5858
▁imaginez	-5859
▁importants	-5860
▁immediately	-5861
▁essentiellement	-5862
MS	-5863
key	-5864
ésie	-5865
▁band	-5866
▁mise	-5867
▁samp	-5868
▁check	-5869
▁débat	-5870
▁floor	-5871
▁magic	-5872
▁Quelle	-5873
▁démont	-5874
▁implic	-5875
▁greater	-5876
▁prevent	-5877
▁receive	-5878
▁poissons	-5879
▁programmes	-5880
▁jet	-5881
▁NASA	-5882
▁chap	-5883
ements	-5884
▁drink	-5885
▁range	-5886
▁store	-5887
▁levels	-5888
▁meeting	-5889
▁publique	-5890
▁Francisco	-5891
bert	-5892
resh	-5893
▁Cons	-5894
lément	-5895
▁centr	-5896
▁command	-5897
▁correct	-5898
▁himself	-5899
▁caractérist	-5900
▁Bar	-5901
exist	-5902
orrow	-5903
▁hous	-5904
▁Islam	-5905
▁aimer	-5906
▁tenir	-5907
▁George	-5908
▁lesquels	-5909
▁présenter	-5910
▁instrument	-5911
▁cele	-5912
▁decade	-5913
▁walked	-5914
imension	-5915
▁driving	-5916
▁station	-5917
▁financial	-5918
do	-5919
rem	-5920
usse	-5921
uted	-5922
▁diz	-5923
alent	-5924
▁Pren	-5925
▁spat	-5926
▁apply	-5927
ifiques	-5928
▁detect	-5929
▁values	-5930
▁website	-5931
▁émotion	-5932
▁discussion	-5933
▁actuellement	-5934
▁mathématiques	-5935
inal	-5936
▁Asi	-5937
agent	-5938
▁beauté	-5939
▁income	-5940
▁lancer	-5941
▁method	-5942
▁océans	-5943
▁devenue	-5944
▁numérique	-5945
▁connection	-5946
▁évidemment	-5947
▁entièrement	-5948
▁os	-5949
llem	-5950
▁veh	-5951
▁legs	-5952
invest	-5953
▁engage	-5954
▁square	-5955
▁descend	-5956
▁popular	-5957
▁essayons	-5958
▁humanity	-5959
▁pressure	-5960
▁créativité	-5961
▁consommation	-5962
obs	-5963
board	-5964
▁rise	-5965
▁tuer	-5966
▁decades	-5967
▁moderne	-5968
▁parlons	-5969
▁teaching	-5970
▁situations	-5971
abe	-5972
▁mâ	-5973
▁ran	-5974
ensez	-5975
eties	-5976
quent	-5977
▁Très	-5978
▁enth	-5979
alisme	-5980
▁London	-5981
▁verrez	-5982
▁mémoire	-5983
▁Pakistan	-5984
▁appropri	-5985
▁médecins	-5986
▁quartier	-5987
rier	-5988
▁surf	-5989
▁cyber	-5990
▁établ	-5991
▁pleine	-5992
▁Combien	-5993
▁therefore	-5994
▁environmental	-5995
Al	-5996
▁Où	-5997
umer	-5998
ingly	-5999
▁gang	-6000
▁host	-6001
▁obst	-6002
▁ryth	-6003
▁trip	-6004
attend	-6005
▁visit	-6006
essayer	-6007
▁adoles	-6008
▁cardia	-6009
▁devais	-6010
▁forget	-6011
▁mesurer	-6012
▁passent	-6013
▁clairement	-6014
▁difficiles	-6015
abb	-6016
rot	-6017
tat	-6018
èque	-6019
itted	-6020
▁laws	-6021
▁babies	-6022
▁départ	-6023
▁profit	-6024
▁useful	-6025
▁arrêter	-6026
▁besoins	-6027
▁practice	-6028
▁fantastic	-6029
▁magnifique	-6030
▁meilleures	-6031
IH	-6032
ancy	-6033
anth	-6034
agers	-6035
anced	-6036
▁bleu	-6037
▁myst	-6038
▁Canada	-6039
▁beauty	-6040
▁quotid	-6041
▁sommet	-6042
▁puissant	-6043
▁satellite	-6044
▁importance	-6045
put	-6046
▁75	-6047
▁da	-6048
olly	-6049
▁idé	-6050
▁rig	-6051
ufact	-6052
▁arts	-6053
▁oxyg	-6054
▁soud	-6055
▁enter	-6056
▁shift	-6057
▁style	-6058
▁integr	-6059
▁Einstein	-6060
▁complexes	-6061
▁regardant	-6062
▁découverte	-6063
anç	-6064
orry	-6065
ster	-6066
▁fen	-6067
▁embr	-6068
▁ignor	-6069
▁bateau	-6070
▁various	-6071
▁Anderson	-6072
▁immédiatement	-6073
oise	-6074
▁vote	-6075
▁bébés	-6076
▁mange	-6077
▁decide	-6078
▁neuros	-6079
▁préfér	-6080
▁Harvard	-6081
▁instance	-6082
▁politics	-6083
▁compagnie	-6084
▁reconstru	-6085
▁colleagues	-6086
▁beg	-6087
▁gla	-6088
▁mid	-6089
icago	-6090
ordre	-6091
▁Char	-6092
▁weap	-6093
▁ahead	-6094
▁noire	-6095
▁récup	-6096
▁observer	-6097
▁industrie	-6098
ico	-6099
yons	-6100
▁narr	-6101
ressed	-6102
▁broad	-6103
▁forte	-6104
▁German	-6105
▁perdre	-6106
▁limites	-6107
▁programs	-6108
▁transition	-6109
▁engineering	-6110
▁organizations	-6111
olf	-6112
▁BG	-6113
berg	-6114
éter	-6115
▁Pal	-6116
icking	-6117
▁outil	-6118
▁paint	-6119
▁female	-6120
▁Chicago	-6121
▁Western	-6122
▁étrange	-6123
▁affaires	-6124
▁following	-6125
ym	-6126
▁Two	-6127
▁Braz	-6128
▁prec	-6129
▁James	-6130
▁gradu	-6131
▁inqui	-6132
▁maint	-6133
▁rapid	-6134
▁parlent	-6135
▁silence	-6136
▁améliorer	-6137
core	-6138
esis	-6139
▁inn	-6140
▁sme	-6141
▁bois	-6142
▁boul	-6143
▁hack	-6144
▁poin	-6145
▁quitt	-6146
▁sport	-6147
▁suivi	-6148
▁celebr	-6149
▁moteur	-6150
▁chinois	-6151
▁choices	-6152
▁explore	-6153
▁secteur	-6154
▁phénomène	-6155
▁remarkable	-6156
▁température	-6157
umes	-6158
▁joy	-6159
▁sad	-6160
aider	-6161
▁Stre	-6162
▁dial	-6163
▁rule	-6164
▁honest	-6165
▁surger	-6166
▁vidéos	-6167
activité	-6168
avantage	-6169
extérieur	-6170
▁although	-6171
▁disaient	-6172
▁mouvements	-6173
▁Ah	-6174
pper	-6175
▁Ber	-6176
▁lev	-6177
▁nomm	-6178
▁uses	-6179
▁slide	-6180
▁catast	-6181
▁shared	-6182
▁addition	-6183
▁réaction	-6184
▁conversations	-6185
▁Fe	-6186
▁GP	-6187
▁élè	-6188
estre	-6189
▁cosm	-6190
▁fuel	-6191
▁puzz	-6192
▁sauf	-6193
▁antib	-6194
▁fréqu	-6195
▁oblig	-6196
▁peint	-6197
▁seuls	-6198
▁entraî	-6199
▁helped	-6200
▁enormous	-6201
▁horrible	-6202
▁génétique	-6203
▁différences	-6204
▁conséquences	-6205
ald	-6206
alu	-6207
osh	-6208
tez	-6209
▁Sm	-6210
nelles	-6211
▁pieds	-6212
▁prêts	-6213
▁trade	-6214
itement	-6215
▁contenu	-6216
▁plaisir	-6217
▁streets	-6218
▁énergie	-6219
▁invented	-6220
▁existence	-6221
▁compréhension	-6222
éma	-6223
rets	-6224
used	-6225
▁gay	-6226
▁catch	-6227
▁telev	-6228
èrement	-6229
▁récomp	-6230
▁servir	-6231
▁consequ	-6232
▁élément	-6233
▁demonstr	-6234
▁Cependant	-6235
oes	-6236
▁kn	-6237
aria	-6238
rict	-6239
▁Cet	-6240
▁sph	-6241
atifs	-6242
▁Many	-6243
▁pure	-6244
▁caméra	-6245
▁visite	-6246
atically	-6247
ologique	-6248
▁disappe	-6249
▁marchés	-6250
▁bactéries	-6251
▁restaurant	-6252
ae	-6253
▁Tur	-6254
▁rot	-6255
▁san	-6256
isons	-6257
▁Think	-6258
▁leader	-6259
Internet	-6260
intellig	-6261
▁chances	-6262
▁envoyer	-6263
▁risques	-6264
▁ailleurs	-6265
▁influenc	-6266
▁principe	-6267
och	-6268
▁zo	-6269
▁Cam	-6270
adore	-6271
ingén	-6272
▁flex	-6273
illion	-6274
▁boîte	-6275
▁raise	-6276
▁France	-6277
▁dinosa	-6278
▁marque	-6279
▁peuple	-6280
▁sexual	-6281
ological	-6282
▁visible	-6283
▁encourage	-6284
ka	-6285
isée	-6286
▁biom	-6287
▁abord	-6288
▁démar	-6289
▁riche	-6290
▁worst	-6291
imately	-6292
▁Brazil	-6293
▁slightly	-6294
▁alternative	-6295
▁entrepreneurs	-6296
It	-6297
ael	-6298
▁Mil	-6299
▁From	-6300
▁Mart	-6301
invent	-6302
▁flying	-6303
▁malgré	-6304
▁supply	-6305
▁entière	-6306
▁sérieux	-6307
▁président	-6308
org	-6309
▁23	-6310
ogue	-6311
user	-6312
▁brû	-6313
lique	-6314
▁coeur	-6315
▁nerve	-6316
▁déclar	-6317
▁souviens	-6318
▁contraire	-6319
▁plastique	-6320
▁understood	-6321
abs	-6322
uie	-6323
ôme	-6324
hode	-6325
lent	-6326
wise	-6327
▁Hum	-6328
▁coff	-6329
▁drop	-6330
▁gene	-6331
▁male	-6332
▁myth	-6333
▁sick	-6334
▁conçu	-6335
▁Toutes	-6336
▁custom	-6337
▁envoyé	-6338
▁talent	-6339
▁efforts	-6340
▁stopped	-6341
▁temperature	-6342
▁profondément	-6343
urop	-6344
érit	-6345
▁lic	-6346
▁Amaz	-6347
enfant	-6348
▁below	-6349
▁laisse	-6350
▁mostly	-6351
▁répand	-6352
▁contemp	-6353
▁effects	-6354
▁couleurs	-6355
▁manufact	-6356
▁possibly	-6357
▁conclusion	-6358
▁hus	-6359
essor	-6360
▁Your	-6361
▁concl	-6362
▁anyway	-6363
▁cortex	-6364
▁hasard	-6365
▁monter	-6366
▁cuisine	-6367
▁étoiles	-6368
apprendre	-6369
▁connaissez	-6370
▁rencontrer	-6371
cr	-6372
▁ax	-6373
erce	-6374
erie	-6375
agram	-6376
arian	-6377
naire	-6378
oston	-6379
érons	-6380
▁afric	-6381
▁aware	-6382
▁garçon	-6383
▁preuve	-6384
▁passait	-6385
▁remarqué	-6386
▁destruction	-6387
▁responsabilité	-6388
lly	-6389
▁2,	-6390
rois	-6391
ulte	-6392
▁Wik	-6393
épend	-6394
▁iron	-6395
▁compare	-6396
▁destroy	-6397
▁purpose	-6398
▁surround	-6399
▁médicament	-6400
ycl	-6401
▁194	-6402
▁cot	-6403
▁vac	-6404
acité	-6405
ograp	-6406
stead	-6407
▁Steve	-6408
▁barri	-6409
▁traff	-6410
▁whose	-6411
inction	-6412
▁bouger	-6413
▁savait	-6414
ignement	-6415
▁Angeles	-6416
▁anglais	-6417
▁faisais	-6418
▁maisons	-6419
▁américain	-6420
▁expression	-6421
architecture	-6422
▁relationships	-6423
1.	-6424
▁99	-6425
amin	-6426
oyer	-6427
▁Iraq	-6428
▁hair	-6429
▁migr	-6430
▁pian	-6431
Europe	-6432
▁Frank	-6433
▁simpl	-6434
itaires	-6435
▁Street	-6436
▁directly	-6437
▁California	-6438
▁experiments	-6439
orb	-6440
▁heat	-6441
▁reço	-6442
urance	-6443
▁legal	-6444
▁offic	-6445
▁Boston	-6446
▁découv	-6447
▁gentle	-6448
▁members	-6449
▁prenons	-6450
▁electron	-6451
▁pression	-6452
▁biological	-6453
▁particules	-6454
▁television	-6455
care	-6456
▁His	-6457
house	-6458
▁chat	-6459
▁diss	-6460
▁suit	-6461
▁task	-6462
anging	-6463
▁choisi	-6464
▁lignes	-6465
▁speech	-6466
▁Instead	-6467
▁arrivent	-6468
▁comprend	-6469
▁logiciel	-6470
▁applications	-6471
▁présentation	-6472
unk	-6473
band	-6474
raid	-6475
▁Nos	-6476
▁mos	-6477
▁vib	-6478
ouill	-6479
▁guer	-6480
▁paid	-6481
▁trag	-6482
▁dying	-6483
▁Indian	-6484
▁closer	-6485
▁meters	-6486
▁states	-6487
▁sujets	-6488
▁discipl	-6489
▁reflect	-6490
▁capacity	-6491
▁naissance	-6492
▁atmosphere	-6493
▁creativity	-6494
Why	-6495
▁dad	-6496
▁dos	-6497
▁dens	-6498
▁joue	-6499
▁email	-6500
▁plans	-6501
▁élèves	-6502
▁inventé	-6503
▁nations	-6504
▁profound	-6505
▁pollution	-6506
5.	-6507
mm	-6508
How	-6509
▁22	-6510
▁hi	-6511
ioth	-6512
load	-6513
▁entr	-6514
▁Great	-6515
▁displ	-6516
▁feels	-6517
▁cultural	-6518
▁rappelle	-6519
▁concentrer	-6520
nu	-6521
jour	-6522
▁195	-6523
▁pier	-6524
▁Grand	-6525
▁dedans	-6526
▁volume	-6527
▁degrees	-6528
▁tableau	-6529
attention	-6530
▁daughter	-6531
▁dizaines	-6532
▁montrent	-6533
▁occident	-6534
▁societies	-6535
▁véritable	-6536
▁communicate	-6537
▁interaction	-6538
▁VIH	-6539
▁beat	-6540
▁chaud	-6541
▁frame	-6542
▁sorti	-6543
habitude	-6544
▁donnent	-6545
▁instruments	-6546
▁organisation	-6547
▁âge	-6548
ening	-6549
lands	-6550
écran	-6551
▁boys	-6552
▁loss	-6553
▁rues	-6554
▁block	-6555
▁défis	-6556
▁tâche	-6557
▁étape	-6558
▁entour	-6559
▁étudié	-6560
▁answers	-6561
▁chambre	-6562
▁observe	-6563
▁tremend	-6564
▁networks	-6565
▁seraient	-6566
abol	-6567
ache	-6568
enant	-6569
habit	-6570
iciper	-6571
▁élevé	-6572
▁played	-6573
▁Londres	-6574
▁complet	-6575
▁spécial	-6576
▁cerveaux	-6577
▁molécules	-6578
▁convention	-6579
▁prochaines	-6580
▁électrique	-6581
▁compétences	-6582
▁responsibility	-6583
ulé	-6584
gypt	-6585
oule	-6586
▁Gal	-6587
▁due	-6588
▁fle	-6589
▁maî	-6590
▁pert	-6591
anches	-6592
▁Pensez	-6593
▁bought	-6594
▁broken	-6595
▁easily	-6596
▁planets	-6597
▁designer	-6598
▁speaking	-6599
▁électron	-6600
mb	-6601
ham	-6602
▁oe	-6603
émin	-6604
▁dég	-6605
chant	-6606
étude	-6607
▁honn	-6608
aining	-6609
arrive	-6610
chauff	-6611
▁dance	-6612
▁balance	-6613
▁noticed	-6614
▁bâtiments	-6615
▁regardons	-6616
▁complexité	-6617
oli	-6618
uil	-6619
▁od	-6620
orce	-6621
cript	-6622
▁Life	-6623
▁ajout	-6624
▁fonds	-6625
▁phase	-6626
▁serve	-6627
▁Depuis	-6628
▁Charles	-6629
▁détails	-6630
▁logique	-6631
▁markets	-6632
▁critique	-6633
▁derniers	-6634
▁diversité	-6635
▁nucléaire	-6636
▁published	-6637
zed	-6638
lais	-6639
yers	-6640
▁600	-6641
▁Part	-6642
▁gagné	-6643
▁gérer	-6644
▁twice	-6645
▁détect	-6646
▁laissé	-6647
▁reduce	-6648
ependent	-6649
▁humaines	-6650
▁individus	-6651
▁chercheurs	-6652
▁sustainable	-6653
onf	-6654
vey	-6655
▁Pac	-6656
▁Son	-6657
▁pig	-6658
▁café	-6659
▁chau	-6660
▁mens	-6661
antill	-6662
impact	-6663
▁lever	-6664
▁lieux	-6665
▁morte	-6666
▁chaîne	-6667
▁expand	-6668
▁oxygen	-6669
▁window	-6670
▁quelles	-6671
▁matériel	-6672
▁planètes	-6673
▁préoccup	-6674
▁principal	-6675
▁définition	-6676
▁Vi	-6677
aker	-6678
este	-6679
▁Mic	-6680
▁pir	-6681
▁élo	-6682
▁afraid	-6683
▁summer	-6684
▁devices	-6685
▁pensait	-6686
▁régions	-6687
▁El	-6688
urch	-6689
▁Lib	-6690
▁Nor	-6691
▁fus	-6692
▁minus	-6693
▁moust	-6694
▁react	-6695
▁utile	-6696
▁Thanks	-6697
▁highly	-6698
▁nearly	-6699
▁connais	-6700
▁douleur	-6701
▁appareil	-6702
▁inspired	-6703
▁américaine	-6704
Le	-6705
ams	-6706
elf	-6707
▁Sa	-6708
rian	-6709
▁abe	-6710
▁gre	-6711
outez	-6712
▁Prem	-6713
▁posé	-6714
arrêter	-6715
▁excell	-6716
▁exception	-6717
▁connaissons	-6718
▁populations	-6719
my	-6720
ino	-6721
ivre	-6722
rench	-6723
▁King	-6724
▁YouT	-6725
▁côte	-6726
▁gold	-6727
▁Paris	-6728
égalité	-6729
▁domest	-6730
▁porter	-6731
ographic	-6732
▁célèbre	-6733
▁evolved	-6734
▁knowing	-6735
▁emotional	-6736
▁differently	-6737
▁experiences	-6738
As	-6739
▁PI	-6740
▁clé	-6741
▁diam	-6742
▁jard	-6743
▁neut	-6744
▁park	-6745
▁roll	-6746
▁1,000	-6747
▁Green	-6748
▁armes	-6749
▁artif	-6750
▁basis	-6751
▁funny	-6752
▁verre	-6753
▁échou	-6754
▁Israel	-6755
▁climat	-6756
▁convert	-6757
▁devenus	-6758
▁appelons	-6759
▁graphique	-6760
▁naturelle	-6761
▁Californie	-6762
▁application	-6763
▁fonctionnent	-6764
hone	-6765
▁évé	-6766
ville	-6767
▁pont	-6768
▁ther	-6769
▁wood	-6770
▁pharm	-6771
▁Encore	-6772
▁corner	-6773
▁envers	-6774
▁seemed	-6775
▁YouTube	-6776
▁missing	-6777
▁émotions	-6778
entreprise	-6779
▁télévision	-6780
▁differences	-6781
▁tum	-6782
ennes	-6783
water	-6784
▁Again	-6785
▁pêche	-6786
▁colère	-6787
▁cérébr	-6788
▁rythme	-6789
▁victim	-6790
▁artific	-6791
▁consist	-6792
▁hearing	-6793
▁méthode	-6794
▁bringing	-6795
▁occasion	-6796
▁commençons	-6797
gal	-6798
ened	-6799
oman	-6800
▁Sat	-6801
▁Alex	-6802
▁quas	-6803
▁chien	-6804
▁target	-6805
▁Nigeria	-6806
▁attract	-6807
▁helping	-6808
▁produced	-6809
▁connaître	-6810
▁conference	-6811
▁possibilités	-6812
▁Du	-6813
idden	-6814
▁diap	-6815
▁flag	-6816
▁gross	-6817
▁rêves	-6818
▁therm	-6819
érences	-6820
▁chauss	-6821
▁gather	-6822
▁muscle	-6823
▁fournir	-6824
▁constitu	-6825
▁identity	-6826
▁marketing	-6827
▁travaillons	-6828
--	-6829
ests	-6830
teau	-6831
▁Stan	-6832
▁forg	-6833
atrice	-6834
▁birds	-6835
▁maxim	-6836
▁passed	-6837
▁spaces	-6838
▁switch	-6839
▁Michael	-6840
▁preuves	-6841
▁concepts	-6842
▁scientist	-6843
▁formidable	-6844
irt	-6845
ason	-6846
assé	-6847
▁Her	-6848
areil	-6849
itant	-6850
lever	-6851
▁Over	-6852
▁Port	-6853
▁climb	-6854
▁magas	-6855
▁répar	-6856
▁10,000	-6857
▁candid	-6858
▁explos	-6859
▁voient	-6860
▁radical	-6861
▁diversity	-6862
▁molecules	-6863
▁Américains	-6864
agon	-6865
▁Cel	-6866
▁GPS	-6867
▁Red	-6868
▁bio	-6869
iving	-6870
▁cous	-6871
▁hole	-6872
▁loca	-6873
▁none	-6874
▁poet	-6875
▁ferme	-6876
▁indic	-6877
▁rough	-6878
▁argent	-6879
▁gotten	-6880
imaginer	-6881
▁illustr	-6882
dimension	-6883
▁antibiot	-6884
▁communiquer	-6885
▁fantastique	-6886
▁organisations	-6887
cence	-6888
▁hier	-6889
▁assum	-6890
▁bruit	-6891
▁river	-6892
▁shoot	-6893
▁amener	-6894
▁poursu	-6895
▁chacune	-6896
▁déchets	-6897
▁fiction	-6898
▁puisque	-6899
▁réchauff	-6900
▁ath	-6901
▁gig	-6902
▁sin	-6903
obile	-6904
▁Comp	-6905
▁Good	-6906
▁repe	-6907
▁allés	-6908
▁équip	-6909
▁désert	-6910
▁eating	-6911
▁option	-6912
▁ralent	-6913
intéress	-6914
▁adultes	-6915
▁focused	-6916
▁surgery	-6917
▁PM	-6918
▁ja	-6919
▁ul	-6920
▁cab	-6921
▁rét	-6922
uropé	-6923
▁reli	-6924
alités	-6925
ilibre	-6926
▁cloud	-6927
▁initi	-6928
▁stren	-6929
▁dreams	-6930
▁minist	-6931
▁Parfois	-6932
▁dessous	-6933
▁toucher	-6934
▁surveillance	-6935
èle	-6936
alys	-6937
▁Thom	-6938
▁tele	-6939
utilise	-6940
▁auquel	-6941
▁croyez	-6942
▁lights	-6943
▁éviter	-6944
▁garçons	-6945
▁immense	-6946
▁spectac	-6947
mentation	-6948
▁auraient	-6949
▁déplacer	-6950
▁sélection	-6951
utilisation	-6952
gth	-6953
▁Sy	-6954
aser	-6955
olds	-6956
ured	-6957
▁Mad	-6958
aling	-6959
▁perm	-6960
▁suic	-6961
▁wire	-6962
▁Japon	-6963
▁avoid	-6964
▁fully	-6965
▁labor	-6966
▁tiers	-6967
▁appear	-6968
▁flight	-6969
▁jambes	-6970
▁récent	-6971
▁creates	-6972
▁forever	-6973
▁écouter	-6974
▁chimiques	-6975
▁cognitive	-6976
▁mauvaises	-6977
informations	-6978
agnes	-6979
inent	-6980
itifs	-6981
▁bibl	-6982
▁ours	-6983
▁scol	-6984
▁sons	-6985
atoire	-6986
ientôt	-6987
▁Avant	-6988
▁chair	-6989
▁concert	-6990
▁déplace	-6991
▁campaign	-6992
▁existent	-6993
▁spending	-6994
▁strength	-6995
▁villages	-6996
▁complexity	-6997
▁enseignants	-6998
vis	-6999
▁py	-7000
▁Bas	-7001
▁sca	-7002
▁tim	-7003
icale	-7004
résil	-7005
▁Pres	-7006
▁susp	-7007
▁zéro	-7008
▁écout	-7009
▁écriv	-7010
▁Brésil	-7011
▁genome	-7012
▁membre	-7013
▁stimul	-7014
▁évolué	-7015
▁studying	-7016
▁prototype	-7017
8.	-7018
ads	-7019
gry	-7020
rét	-7021
van	-7022
iche	-7023
ogen	-7024
▁Eng	-7025
▁brand	-7026
▁maths	-7027
▁party	-7028
▁récol	-7029
▁weird	-7030
▁easier	-7031
▁passage	-7032
▁augmente	-7033
▁opposite	-7034
▁partners	-7035
▁décennies	-7036
▁retourner	-7037
▁industrial	-7038
equ	-7039
▁Mr	-7040
osys	-7041
▁jug	-7042
▁More	-7043
▁bale	-7044
▁prep	-7045
▁Russi	-7046
▁cadre	-7047
▁ancest	-7048
▁coffee	-7049
▁refuge	-7050
éremment	-7051
▁mountain	-7052
Université	-7053
▁opportunities	-7054
▁Aut	-7055
effet	-7056
right	-7057
▁avis	-7058
▁shar	-7059
▁wide	-7060
▁airpl	-7061
▁étiez	-7062
ibilité	-7063
▁génome	-7064
▁museum	-7065
▁proven	-7066
▁venait	-7067
▁vieill	-7068
mosphère	-7069
▁despite	-7070
▁diction	-7071
▁rencontre	-7072
riez	-7073
▁Pri	-7074
asses	-7075
celer	-7076
rical	-7077
▁mons	-7078
▁aspir	-7079
▁horiz	-7080
▁noirs	-7081
▁smell	-7082
▁tradu	-7083
▁raised	-7084
▁ancient	-7085
▁diagram	-7086
▁décider	-7087
▁proches	-7088
atiquement	-7089
▁parfaitement	-7090
IDS	-7091
arc	-7092
ppe	-7093
itan	-7094
▁250	-7095
▁ske	-7096
▁spl	-7097
aphor	-7098
▁flux	-7099
icules	-7100
▁aveug	-7101
▁studio	-7102
▁conduire	-7103
▁capacités	-7104
▁consciousness	-7105
za	-7106
ila	-7107
rées	-7108
unte	-7109
▁tém	-7110
aches	-7111
osyst	-7112
rient	-7113
▁Take	-7114
▁boat	-7115
▁core	-7116
itives	-7117
▁Wikip	-7118
▁accél	-7119
▁avion	-7120
▁cents	-7121
▁danse	-7122
▁expos	-7123
▁fallu	-7124
▁physic	-7125
▁tempor	-7126
▁Nations	-7127
issements	-7128
▁apporter	-7129
▁articles	-7130
▁dangereux	-7131
▁connaissent	-7132
▁suffisamment	-7133
RI	-7134
nam	-7135
uté	-7136
zen	-7137
▁Bu	-7138
▁ast	-7139
cious	-7140
▁cert	-7141
▁faud	-7142
▁envie	-7143
▁lance	-7144
▁lucky	-7145
hôpital	-7146
▁vulner	-7147
▁espaces	-7148
▁matters	-7149
▁niveaux	-7150
▁astronom	-7151
▁demandez	-7152
▁philosop	-7153
▁investment	-7154
▁supplément	-7155
▁tremendous	-7156
▁possibility	-7157
▁différemment	-7158
▁statistiques	-7159
%.	-7160
▁II	-7161
▁om	-7162
know	-7163
reci	-7164
▁Sun	-7165
▁den	-7166
alley	-7167
esses	-7168
▁aper	-7169
▁atta	-7170
▁forc	-7171
▁Votre	-7172
▁crack	-7173
▁proud	-7174
▁solid	-7175
ography	-7176
▁Muslim	-7177
▁yellow	-7178
▁apprend	-7179
▁failure	-7180
▁paradig	-7181
▁parcour	-7182
▁recover	-7183
▁Actually	-7184
▁exponent	-7185
▁montagne	-7186
▁objectif	-7187
bel	-7188
oot	-7189
▁Aud	-7190
▁bla	-7191
▁lun	-7192
emplo	-7193
orate	-7194
▁trau	-7195
iennes	-7196
▁grave	-7197
▁venue	-7198
▁ecosys	-7199
▁therap	-7200
▁vaisse	-7201
▁classes	-7202
▁commenç	-7203
▁devriez	-7204
▁farmers	-7205
▁manières	-7206
▁pourcent	-7207
▁principes	-7208
▁microscope	-7209
▁produisent	-7210
▁ultimately	-7211
rig	-7212
cted	-7213
oxyg	-7214
uins	-7215
agric	-7216
▁conç	-7217
▁held	-7218
▁pile	-7219
▁Micro	-7220
▁règle	-7221
▁stade	-7222
artment	-7223
ometers	-7224
stitute	-7225
▁master	-7226
▁remont	-7227
▁describe	-7228
▁étudiant	-7229
▁dimension	-7230
▁sensation	-7231
▁américains	-7232
▁concernant	-7233
▁organismes	-7234
intelligence	-7235
▁importantly	-7236
▁ressemblent	-7237
chec	-7238
érap	-7239
▁bub	-7240
erves	-7241
▁teen	-7242
tembre	-7243
▁giant	-7244
▁mouth	-7245
▁piano	-7246
▁titre	-7247
▁Middle	-7248
▁accomp	-7249
▁aiment	-7250
▁inject	-7251
▁stream	-7252
▁British	-7253
▁turning	-7254
▁billions	-7255
▁domaines	-7256
▁entirely	-7257
▁présente	-7258
atmosphère	-7259
▁compliqué	-7260
▁religious	-7261
▁similaire	-7262
sp	-7263
▁27	-7264
atte	-7265
▁Tom	-7266
▁lie	-7267
▁bond	-7268
▁remet	-7269
▁Robert	-7270
▁Valley	-7271
▁advant	-7272
▁brings	-7273
▁dirais	-7274
▁empath	-7275
▁tester	-7276
▁transm	-7277
▁However	-7278
▁impliqu	-7279
▁oiseaux	-7280
▁sharing	-7281
▁soutien	-7282
▁virtual	-7283
▁abeilles	-7284
▁benefits	-7285
▁rappeler	-7286
▁sociales	-7287
▁interface	-7288
▁téléphones	-7289
▁lyc	-7290
angle	-7291
based	-7292
istry	-7293
▁club	-7294
▁diab	-7295
▁déte	-7296
▁fash	-7297
▁horm	-7298
▁subs	-7299
ieuses	-7300
▁Egypt	-7301
▁stuck	-7302
▁assist	-7303
▁tonnes	-7304
▁médical	-7305
▁rentrer	-7306
▁platform	-7307
▁classique	-7308
▁landscape	-7309
▁ressentir	-7310
▁remarquable	-7311
idi	-7312
udd	-7313
itely	-7314
▁cook	-7315
▁perp	-7316
▁seed	-7317
ifying	-7318
▁chale	-7319
oxygène	-7320
▁Center	-7321
▁commit	-7322
▁dirait	-7323
▁inconn	-7324
▁intuit	-7325
▁partis	-7326
▁mariage	-7327
▁obtenez	-7328
▁traject	-7329
▁actuelle	-7330
▁commerce	-7331
▁victimes	-7332
▁voulions	-7333
▁efficient	-7334
▁stratégie	-7335
▁definition	-7336
▁phenomenon	-7337
▁incroyables	-7338
▁Med	-7339
▁emm	-7340
▁via	-7341
▁fier	-7342
▁hell	-7343
▁epide	-7344
▁froid	-7345
▁tombe	-7346
▁tough	-7347
utation	-7348
▁grosse	-7349
▁obtenu	-7350
▁pauvre	-7351
▁réflex	-7352
▁tissue	-7353
▁artists	-7354
▁husband	-7355
▁parking	-7356
▁parlait	-7357
▁correcte	-7358
▁expériment	-7359
▁motivation	-7360
▁reconnaître	-7361
30	-7362
hor	-7363
uent	-7364
▁hur	-7365
chent	-7366
rimer	-7367
▁brut	-7368
▁tick	-7369
▁accur	-7370
▁calls	-7371
anthrop	-7372
▁Thomas	-7373
▁breast	-7374
▁curios	-7375
▁opened	-7376
▁phones	-7377
▁circuit	-7378
▁employe	-7379
▁intense	-7380
▁European	-7381
▁emotions	-7382
▁negative	-7383
▁prochain	-7384
▁davantage	-7385
▁échantill	-7386
▁convaincre	-7387
gt	-7388
nér	-7389
▁Ec	-7390
This	-7391
anci	-7392
▁fal	-7393
▁saf	-7394
▁écr	-7395
armée	-7396
tarct	-7397
▁Asia	-7398
▁bull	-7399
▁cred	-7400
▁lack	-7401
▁lamp	-7402
ansion	-7403
▁offer	-7404
▁rural	-7405
▁analog	-7406
▁fairly	-7407
▁brother	-7408
▁muscles	-7409
▁passant	-7410
▁créatures	-7411
▁alimentaire	-7412
▁principalement	-7413
olé	-7414
▁CE	-7415
ômes	-7416
▁See	-7417
▁tag	-7418
▁urg	-7419
ctive	-7420
▁Once	-7421
▁brev	-7422
▁vaut	-7423
avions	-7424
▁fasse	-7425
▁vrais	-7426
ictions	-7427
▁Royaume	-7428
▁lettres	-7429
▁Sometimes	-7430
▁invention	-7431
▁retrouver	-7432
▁suffering	-7433
▁émissions	-7434
▁considérer	-7435
▁connections	-7436
ala	-7437
ked	-7438
meu	-7439
avec	-7440
lied	-7441
ounts	-7442
▁bound	-7443
▁persu	-7444
▁perte	-7445
▁attemp	-7446
▁courbe	-7447
▁publié	-7448
▁conflit	-7449
▁décrire	-7450
▁necessarily	-7451
▁informatique	-7452
can	-7453
▁fu	-7454
extr	-7455
▁Tex	-7456
phant	-7457
▁Phil	-7458
▁boute	-7459
▁dirig	-7460
▁faces	-7461
▁marri	-7462
▁refer	-7463
▁desert	-7464
▁remote	-7465
▁fashion	-7466
▁moindre	-7467
▁attendre	-7468
▁elements	-7469
▁explorer	-7470
▁instinct	-7471
▁planning	-7472
oirs	-7473
port	-7474
▁Sil	-7475
print	-7476
oureux	-7477
▁liens	-7478
▁lutte	-7479
ulaires	-7480
▁diplom	-7481
▁forêts	-7482
▁iPhone	-7483
▁presse	-7484
▁rappro	-7485
▁sector	-7486
▁superm	-7487
▁malaria	-7488
▁mettent	-7489
▁require	-7490
▁compared	-7491
▁feedback	-7492
▁university	-7493
▁connaissances	-7494
cie	-7495
âtre	-7496
éder	-7497
accès	-7498
▁dorm	-7499
▁fert	-7500
change	-7501
ellent	-7502
itudes	-7503
▁Obama	-7504
▁helps	-7505
▁plaît	-7506
▁pleas	-7507
▁Atlant	-7508
▁attrib	-7509
▁chocol	-7510
▁events	-7511
opportun	-7512
▁figured	-7513
▁possède	-7514
▁vouloir	-7515
▁morceaux	-7516
▁creatures	-7517
▁particles	-7518
▁background	-7519
▁biologique	-7520
▁déterminer	-7521
▁participer	-7522
4.	-7523
ih	-7524
uh	-7525
lée	-7526
aite	-7527
ionn	-7528
oins	-7529
rogen	-7530
▁Mond	-7531
▁bees	-7532
▁bird	-7533
▁soup	-7534
▁aient	-7535
▁attir	-7536
▁faute	-7537
▁quels	-7538
▁sorry	-7539
▁belong	-7540
▁gender	-7541
▁lecture	-7542
▁rivière	-7543
▁artistes	-7544
▁necessary	-7545
▁professeurs	-7546
▁Em	-7547
▁cu	-7548
hand	-7549
▁dign	-7550
▁murs	-7551
▁purs	-7552
▁spot	-7553
▁cheap	-7554
▁coast	-7555
▁walls	-7556
▁Amazon	-7557
▁French	-7558
▁couche	-7559
▁failed	-7560
▁mettez	-7561
▁pounds	-7562
▁shouldn	-7563
▁studied	-7564
▁richesse	-7565
▁survivre	-7566
▁précisément	-7567
▁responsable	-7568
▁comportements	-7569
La	-7570
▁Pat	-7571
estin	-7572
inqui	-7573
▁Ghan	-7574
▁stem	-7575
▁appré	-7576
▁frère	-7577
▁lycée	-7578
▁arrêté	-7579
▁disord	-7580
▁myster	-7581
estation	-7582
▁appreci	-7583
▁arrivés	-7584
▁counter	-7585
▁enthous	-7586
▁holding	-7587
▁leading	-7588
▁succeed	-7589
▁employés	-7590
▁competition	-7591
▁conservation	-7592
▁pa	-7593
soft	-7594
▁egg	-7595
▁biod	-7596
▁subt	-7597
▁tels	-7598
▁avanc	-7599
▁bread	-7600
▁bridge	-7601
▁réelle	-7602
▁vulnér	-7603
ollywood	-7604
ormément	-7605
▁bientôt	-7606
▁consiste	-7607
▁recevoir	-7608
▁strategy	-7609
gar	-7610
ini	-7611
▁câ	-7612
Vous	-7613
▁Jul	-7614
▁alt	-7615
▁rire	-7616
▁Trois	-7617
▁accum	-7618
▁fémin	-7619
▁heads	-7620
▁honte	-7621
▁Quelqu	-7622
▁cooper	-7623
▁fusion	-7624
▁menace	-7625
▁respir	-7626
▁sortie	-7627
▁options	-7628
▁quitter	-7629
▁trouvez	-7630
▁contient	-7631
▁semblent	-7632
▁appareils	-7633
▁proportion	-7634
▁représentent	-7635
3.	-7636
tel	-7637
▁US	-7638
atter	-7639
▁bone	-7640
▁moth	-7641
▁sacr	-7642
▁soin	-7643
rition	-7644
▁hyper	-7645
▁multi	-7646
▁quote	-7647
▁remer	-7648
▁shock	-7649
▁attent	-7650
▁déplac	-7651
▁telles	-7652
▁tourne	-7653
▁meurent	-7654
▁sommeil	-7655
▁allaient	-7656
▁chimpanz	-7657
▁contract	-7658
▁responsible	-7659
zy	-7660
▁î	-7661
aret	-7662
icit	-7663
▁Ros	-7664
bling	-7665
▁Mark	-7666
aurait	-7667
▁douce	-7668
▁motor	-7669
▁interd	-7670
▁suffit	-7671
▁nourrir	-7672
▁previous	-7673
▁president	-7674
▁fabrication	-7675
▁interactions	-7676
AR	-7677
qués	-7678
▁Lad	-7679
ising	-7680
phins	-7681
▁Mary	-7682
▁bits	-7683
▁orch	-7684
▁rang	-7685
▁reve	-7686
▁ship	-7687
▁valu	-7688
▁catég	-7689
▁crash	-7690
▁exhib	-7691
▁mille	-7692
▁pilot	-7693
▁polio	-7694
▁jardin	-7695
▁foreign	-7696
▁volonté	-7697
▁conflits	-7698
▁childhood	-7699
▁discovery	-7700
▁documents	-7701
▁organisms	-7702
▁Ro	-7703
iqué	-7704
▁Sam	-7705
atory	-7706
exemp	-7707
étend	-7708
▁agir	-7709
▁dict	-7710
▁zoom	-7711
▁faith	-7712
▁fresh	-7713
▁newsp	-7714
▁plane	-7715
▁pyram	-7716
▁émerg	-7717
ccident	-7718
▁Public	-7719
▁battre	-7720
▁ferait	-7721
▁pollen	-7722
▁vaccin	-7723
▁acceler	-7724
▁devrais	-7725
▁musical	-7726
▁fighting	-7727
▁brilliant	-7728
▁agriculture	-7729
ario	-7730
oncé	-7731
onné	-7732
prim	-7733
ring	-7734
▁Rep	-7735
▁jur	-7736
▁shr	-7737
▁unp	-7738
▁auto	-7739
▁amené	-7740
▁chick	-7741
▁mouse	-7742
▁paras	-7743
▁tissu	-7744
▁deeply	-7745
▁determ	-7746
▁lesson	-7747
▁méthod	-7748
▁territ	-7749
▁honnête	-7750
▁managed	-7751
▁insectes	-7752
▁utilisés	-7753
▁traverser	-7754
▁accessible	-7755
xi	-7756
med	-7757
ned	-7758
oux	-7759
▁36	-7760
raft	-7761
▁bin	-7762
copes	-7763
effic	-7764
▁accro	-7765
▁argue	-7766
▁Mexico	-7767
▁School	-7768
▁acheté	-7769
▁adults	-7770
▁bright	-7771
▁métaph	-7772
▁unlike	-7773
▁chaleur	-7774
▁intérêt	-7775
▁opinion	-7776
▁related	-7777
▁majority	-7778
▁portrait	-7779
▁engineers	-7780
▁sculpture	-7781
dimensional	-7782
▁businesses	-7783
Qu	-7784
Est	-7785
mont	-7786
vere	-7787
verg	-7788
▁Dem	-7789
▁Hig	-7790
▁gun	-7791
▁org	-7792
▁wat	-7793
apped	-7794
opter	-7795
▁chan	-7796
▁faim	-7797
▁ride	-7798
existe	-7799
érance	-7800
▁frais	-7801
▁musée	-7802
▁names	-7803
▁réfug	-7804
▁sable	-7805
ilities	-7806
▁Grande	-7807
▁bouche	-7808
▁boulot	-7809
▁letter	-7810
▁oceans	-7811
▁sombre	-7812
▁leaving	-7813
▁Pourtant	-7814
▁finished	-7815
▁Microsoft	-7816
agriculture	-7817
▁comprennent	-7818
▁fascinating	-7819
▁professional	-7820
▁2.	-7821
lymp	-7822
oile	-7823
wich	-7824
▁Glo	-7825
▁rub	-7826
▁coal	-7827
▁chaos	-7828
▁equal	-7829
▁héros	-7830
▁laugh	-7831
▁leads	-7832
▁queue	-7833
▁wheel	-7834
leterre	-7835
▁chauff	-7836
▁colors	-7837
▁degree	-7838
▁disais	-7839
▁effray	-7840
▁sister	-7841
▁venant	-7842
▁limited	-7843
▁revient	-7844
▁typical	-7845
▁watched	-7846
▁wearing	-7847
▁multiple	-7848
▁dynamique	-7849
▁efficaces	-7850
▁intention	-7851
▁disponibles	-7852
▁independent	-7853
▁mathematics	-7854
▁unfortunately	-7855
DP	-7856
éles	-7857
▁Did	-7858
▁Haw	-7859
▁Som	-7860
appar	-7861
attan	-7862
▁degr	-7863
▁noms	-7864
▁rece	-7865
▁tons	-7866
arrass	-7867
primer	-7868
▁anony	-7869
▁relev	-7870
ocratic	-7871
▁créent	-7872
▁doigts	-7873
▁erreur	-7874
▁hidden	-7875
▁interp	-7876
▁lettre	-7877
▁réussir	-7878
▁trained	-7879
▁believed	-7880
▁creation	-7881
▁descript	-7882
▁concerned	-7883
▁connexion	-7884
▁mortalité	-7885
▁puissante	-7886
co	-7887
add	-7888
ength	-7889
▁Manh	-7890
▁Very	-7891
▁cave	-7892
▁earn	-7893
▁tume	-7894
▁cheve	-7895
▁noise	-7896
▁resol	-7897
▁caught	-7898
▁debout	-7899
▁décrit	-7900
▁proper	-7901
▁regret	-7902
▁régime	-7903
▁versus	-7904
▁benefit	-7905
▁highest	-7906
▁rendent	-7907
▁administ	-7908
▁everyday	-7909
▁Manhattan	-7910
▁économiques	-7911
▁généralement	-7912
quis	-7913
▁dat	-7914
▁eau	-7915
▁row	-7916
amine	-7917
cents	-7918
known	-7919
▁gras	-7920
▁labo	-7921
cepter	-7922
▁Higgs	-7923
▁click	-7924
▁liber	-7925
▁mener	-7926
▁provo	-7927
▁client	-7928
▁locaux	-7929
▁appeler	-7930
▁chiffre	-7931
▁Stanford	-7932
▁followed	-7933
▁described	-7934
▁kilometers	-7935
▁ressembler	-7936
▁énormément	-7937
Don	-7938
aily	-7939
alie	-7940
iaux	-7941
word	-7942
▁10,	-7943
▁Auc	-7944
▁Che	-7945
▁twe	-7946
apter	-7947
autor	-7948
ismes	-7949
▁Bush	-7950
▁Cont	-7951
▁arms	-7952
▁célé	-7953
▁edge	-7954
▁hate	-7955
ildren	-7956
▁Congo	-7957
▁Texas	-7958
▁aviez	-7959
▁camer	-7960
▁grown	-7961
▁magie	-7962
▁Martin	-7963
▁closed	-7964
▁orient	-7965
▁quitté	-7966
▁autonom	-7967
▁constit	-7968
▁empower	-7969
▁signaux	-7970
▁volunte	-7971
▁weapons	-7972
▁changent	-7973
▁separate	-7974
▁cardiaque	-7975
▁management	-7976
enseignement	-7977
organisation	-7978
▁constamment	-7979
▁participants	-7980
irs	-7981
orp	-7982
ums	-7983
ateg	-7984
oubl	-7985
▁Tor	-7986
ierie	-7987
▁Rien	-7988
▁fold	-7989
▁gain	-7990
▁tire	-7991
▁abstr	-7992
▁globe	-7993
▁mères	-7994
arriver	-7995
▁appart	-7996
▁limite	-7997
▁fenêtre	-7998
▁married	-7999
▁otherwise	-8000
▁populaire	-8001
▁portables	-8002
▁constantly	-8003
▁frontières	-8004
▁intelligents	-8005
If	-8006
PA	-8007
rel	-8008
wide	-8009
▁Mac	-8010
▁Adam	-8011
▁Comm	-8012
▁dent	-8013
▁sert	-8014
idémie	-8015
ologues	-8016
▁chasse	-8017
▁paysage	-8018
▁scanner	-8019
▁continué	-8020
▁sûrement	-8021
▁augmenter	-8022
▁conférences	-8023
▁découvertes	-8024
▁merveilleuse	-8025
7.	-8026
Uni	-8027
ida	-8028
ius	-8029
▁32	-8030
cond	-8031
onst	-8032
rich	-8033
▁Air	-8034
▁Flor	-8035
▁bear	-8036
▁moon	-8037
▁wear	-8038
ancing	-8039
▁leçon	-8040
▁mosqu	-8041
▁regul	-8042
▁Nature	-8043
▁destin	-8044
▁romant	-8045
▁slowly	-8046
▁element	-8047
▁traffic	-8048
▁devaient	-8049
▁présence	-8050
▁psychiat	-8051
▁received	-8052
▁propriété	-8053
IDA	-8054
itz	-8055
uin	-8056
burg	-8057
enty	-8058
érir	-8059
▁wis	-8060
craft	-8061
▁ador	-8062
▁maje	-8063
▁scen	-8064
itness	-8065
▁allée	-8066
▁carré	-8067
▁moves	-8068
▁novel	-8069
▁steps	-8070
▁truck	-8071
▁intens	-8072
▁interf	-8073
▁island	-8074
▁manage	-8075
▁saving	-8076
▁stupid	-8077
▁terres	-8078
ièmement	-8079
ologists	-8080
érations	-8081
▁affaire	-8082
▁invited	-8083
▁biblioth	-8084
▁investig	-8085
▁utilisée	-8086
▁advantage	-8087
▁directions	-8088
▁générations	-8089
èv	-8090
uts	-8091
▁Ke	-8092
mère	-8093
▁lis	-8094
▁scr	-8095
aitre	-8096
▁fass	-8097
▁vête	-8098
intégr	-8099
urally	-8100
▁dense	-8101
▁lunch	-8102
▁venus	-8103
▁Prenez	-8104
▁handic	-8105
▁morale	-8106
esterday	-8107
▁ajouter	-8108
▁disting	-8109
▁extrait	-8110
▁fourmis	-8111
▁insects	-8112
▁pouviez	-8113
▁soldats	-8114
▁Audience	-8115
▁facteurs	-8116
▁principles	-8117
▁participation	-8118
An	-8119
ek	-8120
rol	-8121
cast	-8122
oyen	-8123
▁Num	-8124
▁Each	-8125
oindre	-8126
▁Toute	-8127
▁chron	-8128
▁refus	-8129
▁régul	-8130
▁talks	-8131
ologist	-8132
ressive	-8133
▁pointe	-8134
▁precise	-8135
▁metaphor	-8136
▁sequence	-8137
▁terminer	-8138
▁trouvons	-8139
▁Institute	-8140
▁perfectly	-8141
▁Malheureusement	-8142
9.	-8143
hyd	-8144
imb	-8145
oci	-8146
édie	-8147
▁sep	-8148
alisé	-8149
andis	-8150
erver	-8151
obser	-8152
prits	-8153
▁Have	-8154
▁Jack	-8155
▁Jeff	-8156
▁bask	-8157
▁fera	-8158
▁king	-8159
▁soil	-8160
▁tens	-8161
▁whom	-8162
▁Apple	-8163
▁Ghana	-8164
individ	-8165
▁begins	-8166
▁breath	-8167
▁reward	-8168
▁safety	-8169
▁survie	-8170
▁assembl	-8171
▁Quelques	-8172
▁launched	-8173
▁disponible	-8174
▁principale	-8175
▁innovations	-8176
▁consequences	-8177
yt	-8178
cend	-8179
▁Pol	-8180
▁dry	-8181
▁ore	-8182
▁seat	-8183
inspir	-8184
ushing	-8185
▁angle	-8186
▁arbre	-8187
▁folks	-8188
▁homes	-8189
▁inequ	-8190
▁layer	-8191
▁Intern	-8192
▁exists	-8193
▁grandm	-8194
▁arrivée	-8195
▁coordin	-8196
▁insight	-8197
▁replace	-8198
▁identify	-8199
▁normally	-8200
▁mentioned	-8201
▁photograp	-8202
▁regardent	-8203
▁travailleurs	-8204
.'	-8205
rome	-8206
avion	-8207
chons	-8208
essel	-8209
rices	-8210
state	-8211
▁diox	-8212
▁ethn	-8213
▁fell	-8214
étaire	-8215
▁Celui	-8216
▁Moyen	-8217
▁sages	-8218
▁venez	-8219
obtenir	-8220
▁circle	-8221
▁paying	-8222
itablement	-8223
▁Certaines	-8224
▁currently	-8225
▁septembre	-8226
▁surprised	-8227
▁apprennent	-8228
▁considered	-8229
▁travaillant	-8230
▁implications	-8231
▁malheureusement	-8232
aped	-8233
ôtre	-8234
▁era	-8235
athie	-8236
objet	-8237
rième	-8238
▁feme	-8239
▁hasn	-8240
▁score	-8241
▁tient	-8242
arrière	-8243
▁Island	-8244
▁imprim	-8245
▁prefer	-8246
▁privil	-8247
▁puzzle	-8248
▁ration	-8249
▁factory	-8250
▁mélange	-8251
▁parlant	-8252
▁partner	-8253
intéresse	-8254
▁survival	-8255
▁séquence	-8256
▁radiation	-8257
▁évolution	-8258
▁fed	-8259
▁wel	-8260
▁joué	-8261
aisons	-8262
ignons	-8263
▁Inter	-8264
▁brief	-8265
▁drôle	-8266
▁equip	-8267
▁gratu	-8268
▁immun	-8269
▁dinner	-8270
▁finger	-8271
▁pourra	-8272
▁avancer	-8273
▁signals	-8274
▁strateg	-8275
▁soutenir	-8276
▁struggle	-8277
▁operating	-8278
▁protéines	-8279
▁dirigeants	-8280
▁intéressantes	-8281
ni	-8282
Hey	-8283
▁65	-8284
▁gâ	-8285
.000	-8286
▁bee	-8287
▁cry	-8288
ouges	-8289
▁Sans	-8290
▁coul	-8291
▁roof	-8292
▁wave	-8293
ulsion	-8294
▁compt	-8295
▁côtés	-8296
▁durée	-8297
▁simul	-8298
▁trous	-8299
▁debate	-8300
▁detail	-8301
▁fellow	-8302
▁reform	-8303
▁routes	-8304
▁authent	-8305
▁protein	-8306
▁theater	-8307
▁semblait	-8308
▁Everybody	-8309
▁nationale	-8310
▁satellites	-8311
▁surprising	-8312
▁responsables	-8313
▁internationale	-8314
alg	-8315
ted	-8316
écl	-8317
▁DH	-8318
▁Rw	-8319
aked	-8320
eral	-8321
ised	-8322
èses	-8323
▁Cop	-8324
▁GDP	-8325
attle	-8326
▁Coun	-8327
▁juge	-8328
▁resc	-8329
▁shoes	-8330
▁téles	-8331
▁verte	-8332
▁harder	-8333
ications	-8334
▁curious	-8335
▁langues	-8336
▁violent	-8337
▁matériau	-8338
▁soldiers	-8339
expression	-8340
▁Australia	-8341
▁objectifs	-8342
▁seriously	-8343
▁légèrement	-8344
▁nécessaires	-8345
▁opportunité	-8346
▁civilization	-8347
gu	-8348
bler	-8349
▁Bob	-8350
▁Lab	-8351
▁PIB	-8352
▁del	-8353
▁dot	-8354
▁fan	-8355
▁fis	-8356
▁lar	-8357
▁lux	-8358
▁vag	-8359
owers	-8360
uries	-8361
▁canc	-8362
▁drag	-8363
phants	-8364
▁Enfin	-8365
▁Juste	-8366
▁Nobel	-8367
▁Three	-8368
▁boule	-8369
▁doigt	-8370
▁honor	-8371
▁polar	-8372
▁sports	-8373
▁touche	-8374
▁vessel	-8375
▁croient	-8376
▁erreurs	-8377
▁nervous	-8378
▁publics	-8379
▁quantum	-8380
▁section	-8381
▁simplic	-8382
▁testing	-8383
▁transpl	-8384
▁worried	-8385
▁marriage	-8386
▁sandwich	-8387
▁physiques	-8388
▁depression	-8389
▁dépression	-8390
▁correctement	-8391
até	-8392
iée	-8393
▁Rio	-8394
▁fib	-8395
▁tué	-8396
aceut	-8397
anges	-8398
arrêt	-8399
érant	-8400
▁corr	-8401
▁renf	-8402
▁categ	-8403
▁coral	-8404
▁toxic	-8405
▁degrés	-8406
▁finish	-8407
▁triste	-8408
▁England	-8409
▁consult	-8410
▁mothers	-8411
▁activité	-8412
▁classroom	-8413
▁directeur	-8414
▁pensaient	-8415
▁possibles	-8416
▁référence	-8417
▁associated	-8418
▁generations	-8419
ôm	-8420
▁ah	-8421
ivez	-8422
otic	-8423
well	-8424
▁mov	-8425
place	-8426
érité	-8427
▁Does	-8428
▁golf	-8429
uition	-8430
▁Ouais	-8431
▁dents	-8432
▁frequ	-8433
▁fruit	-8434
▁garde	-8435
▁nommé	-8436
▁scene	-8437
▁smile	-8438
▁battle	-8439
▁habitu	-8440
▁leaves	-8441
▁prises	-8442
▁réduit	-8443
▁centres	-8444
▁drawing	-8445
▁secrets	-8446
ologiques	-8447
stitution	-8448
▁distinct	-8449
▁resource	-8450
▁sentence	-8451
▁intéressé	-8452
▁healthcare	-8453
▁researchers	-8454
ota	-8455
apse	-8456
cade	-8457
nait	-8458
▁Sel	-8459
▁cow	-8460
▁dél	-8461
▁1000	-8462
▁atom	-8463
▁bour	-8464
▁cong	-8465
▁quad	-8466
ignent	-8467
▁Would	-8468
▁deter	-8469
▁lifet	-8470
assurer	-8471
▁agents	-8472
▁enable	-8473
▁forced	-8474
▁jouent	-8475
▁picked	-8476
▁plante	-8477
▁recycl	-8478
▁crucial	-8479
▁raconte	-8480
▁lentement	-8481
▁montagnes	-8482
▁toilettes	-8483
▁statistics	-8484
ta	-8485
agr	-8486
▁Gl	-8487
▁Hy	-8488
cket	-8489
seur	-8490
▁Lat	-8491
▁clip	-8492
▁vélo	-8493
encies	-8494
heimer	-8495
▁chain	-8496
▁coûts	-8497
▁grass	-8498
▁musul	-8499
▁teles	-8500
ériques	-8501
▁belief	-8502
▁essais	-8503
▁fields	-8504
▁incent	-8505
▁malade	-8506
▁select	-8507
▁unless	-8508
ventions	-8509
▁normale	-8510
▁concentr	-8511
▁arguments	-8512
▁equipment	-8513
▁hopefully	-8514
▁ingénieurs	-8515
▁inspiration	-8516
80	-8517
cto	-8518
▁26	-8519
atom	-8520
tech	-8521
urez	-8522
▁Sal	-8523
▁cod	-8524
uvres	-8525
▁Ceux	-8526
▁dure	-8527
▁exec	-8528
▁lapt	-8529
▁tube	-8530
▁Willi	-8531
▁acade	-8532
▁daily	-8533
▁dress	-8534
▁laser	-8535
▁saved	-8536
▁soyez	-8537
▁surge	-8538
intérêt	-8539
▁desire	-8540
▁fossil	-8541
ifically	-8542
▁cheveux	-8543
▁comprom	-8544
▁interpr	-8545
▁weather	-8546
▁Wikipedia	-8547
▁emissions	-8548
▁comfortable	-8549
▁personnelle	-8550
tt	-8551
azz	-8552
▁95	-8553
▁ur	-8554
hane	-8555
▁800	-8556
▁Wal	-8557
▁gap	-8558
▁nez	-8559
▁tue	-8560
▁van	-8561
ested	-8562
etnam	-8563
icing	-8564
▁ants	-8565
▁puts	-8566
▁2,000	-8567
▁Their	-8568
▁inner	-8569
▁pluie	-8570
▁stood	-8571
▁wisdom	-8572
▁Germany	-8573
▁Science	-8574
▁cameras	-8575
▁confort	-8576
▁contrad	-8577
▁devions	-8578
▁keeping	-8579
▁analysis	-8580
▁clinique	-8581
▁générale	-8582
▁molecule	-8583
▁considère	-8584
▁organized	-8585
▁personnage	-8586
▁productive	-8587
Et	-8588
ira	-8589
lie	-8590
Pour	-8591
aced	-8592
ahar	-8593
izes	-8594
ouer	-8595
▁bid	-8596
▁dol	-8597
▁Russ	-8598
▁basé	-8599
▁coté	-8600
▁foie	-8601
▁hide	-8602
▁meat	-8603
érapie	-8604
▁nulle	-8605
▁prosp	-8606
▁round	-8607
▁cercle	-8608
▁videos	-8609
▁100,000	-8610
▁Mexique	-8611
▁réunion	-8612
▁treated	-8613
▁essayant	-8614
▁indépend	-8615
▁simulation	-8616
▁increasingly	-8617
uy	-8618
ali	-8619
▁éd	-8620
rine	-8621
▁Peu	-8622
▁ree	-8623
cking	-8624
explo	-8625
icate	-8626
xford	-8627
érêts	-8628
▁cock	-8629
▁joie	-8630
▁amour	-8631
▁bande	-8632
▁serez	-8633
▁texte	-8634
▁circum	-8635
▁filled	-8636
▁motion	-8637
▁calling	-8638
▁vieille	-8639
▁auxquels	-8640
▁clinical	-8641
▁expected	-8642
▁troubles	-8643
▁economics	-8644
▁principle	-8645
▁processes	-8646
▁technical	-8647
▁Everything	-8648
▁x	-8649
edy	-8650
rum	-8651
rete	-8652
▁700	-8653
▁Jim	-8654
▁Sim	-8655
point	-8656
▁AIDS	-8657
▁Kore	-8658
▁Leur	-8659
▁flat	-8660
▁Peter	-8661
▁ayons	-8662
▁états	-8663
▁autism	-8664
▁interc	-8665
▁viande	-8666
▁arrived	-8667
▁release	-8668
▁souches	-8669
▁warming	-8670
▁baseball	-8671
▁molécule	-8672
▁demandent	-8673
▁consumption	-8674
▁experienced	-8675
▁électriques	-8676
sol	-8677
cked	-8678
iler	-8679
uner	-8680
érée	-8681
▁191	-8682
▁Tal	-8683
merge	-8684
▁gift	-8685
▁libr	-8686
▁pair	-8687
▁pand	-8688
▁wake	-8689
▁weak	-8690
▁baiss	-8691
▁chrom	-8692
▁lourd	-8693
▁users	-8694
▁vaste	-8695
▁fourth	-8696
▁grippe	-8697
▁privée	-8698
▁résist	-8699
▁covered	-8700
▁figures	-8701
▁mesures	-8702
▁organic	-8703
▁réveill	-8704
▁football	-8705
ographique	-8706
▁languages	-8707
▁maintenir	-8708
▁éducation	-8709
▁conséquent	-8710
▁combinaison	-8711
▁civilisation	-8712
▁entrepreneur	-8713
Yes	-8714
ani	-8715
omo	-8716
oul	-8717
fish	-8718
çant	-8719
▁Jan	-8720
▁cup	-8721
▁gène	-8722
▁hadn	-8723
▁lies	-8724
▁prol	-8725
▁refl	-8726
▁éduc	-8727
enture	-8728
▁Smith	-8729
▁spoke	-8730
zheimer	-8731
▁marine	-8732
▁poésie	-8733
▁shapes	-8734
▁voices	-8735
▁amusant	-8736
▁dealing	-8737
▁propose	-8738
▁ressort	-8739
améliorer	-8740
▁compliqu	-8741
▁reaction	-8742
▁trillion	-8743
▁chaussures	-8744
▁engagement	-8745
▁equivalent	-8746
fic	-8747
life	-8748
▁202	-8749
▁Joe	-8750
izoph	-8751
▁Bank	-8752
▁SIDA	-8753
▁aidé	-8754
▁hang	-8755
▁cloth	-8756
▁facts	-8757
▁quiet	-8758
▁depend	-8759
▁drogue	-8760
▁déclen	-8761
▁galaxy	-8762
▁invite	-8763
▁offrir	-8764
▁tâches	-8765
▁charbon	-8766
▁combust	-8767
▁croyons	-8768
▁renouve	-8769
▁setting	-8770
▁vehicle	-8771
▁airplane	-8772
▁surfaces	-8773
ingénierie	-8774
▁comprends	-8775
▁connecter	-8776
▁largement	-8777
▁quatrième	-8778
▁concentration	-8779
Les	-8780
emb	-8781
ora	-8782
set	-8783
▁hô	-8784
▁mér	-8785
arriv	-8786
arrête	-8787
▁north	-8788
▁plain	-8789
▁rates	-8790
▁repas	-8791
▁south	-8792
▁announ	-8793
▁centim	-8794
▁convin	-8795
▁demain	-8796
▁démocr	-8797
▁ouvrir	-8798
▁éloign	-8799
▁combine	-8800
▁défense	-8801
▁essayez	-8802
▁gestion	-8803
▁obtient	-8804
▁privile	-8805
▁engineer	-8806
▁location	-8807
▁property	-8808
▁President	-8809
▁autrement	-8810
▁movements	-8811
▁universal	-8812
▁artificial	-8813
▁mathematical	-8814
BI	-8815
NG	-8816
ij	-8817
réd	-8818
down	-8819
▁Art	-8820
▁adj	-8821
neath	-8822
uster	-8823
étrie	-8824
▁anth	-8825
▁mené	-8826
orient	-8827
▁bases	-8828
▁divid	-8829
▁skill	-8830
▁consac	-8831
▁débarr	-8832
▁invers	-8833
▁movies	-8834
▁script	-8835
▁symmet	-8836
▁thinks	-8837
▁toward	-8838
agissait	-8839
▁esprits	-8840
▁factors	-8841
▁letters	-8842
▁mensong	-8843
▁préserv	-8844
▁dessiner	-8845
▁illusion	-8846
▁utilisées	-8847
▁philanthrop	-8848
6.	-8849
▁u	-8850
umé	-8851
▁Jo	-8852
auto	-8853
▁Del	-8854
▁Ser	-8855
▁agg	-8856
▁dau	-8857
charg	-8858
▁doub	-8859
▁déje	-8860
▁ennu	-8861
▁miro	-8862
▁pron	-8863
ologue	-8864
▁bouge	-8865
▁crowd	-8866
▁escal	-8867
▁signe	-8868
▁caused	-8869
▁essaie	-8870
▁infant	-8871
▁losing	-8872
▁mammif	-8873
llemagne	-8874
▁dynamic	-8875
▁implant	-8876
▁pensées	-8877
▁selling	-8878
▁théâtre	-8879
▁annivers	-8880
▁détecter	-8881
▁identité	-8882
▁journaux	-8883
▁essential	-8884
▁wondering	-8885
▁compagnies	-8886
▁propriétés	-8887
▁similaires	-8888
▁ressemblait	-8889
▁transmission	-8890
rob	-8891
▁Law	-8892
▁aqu	-8893
▁cul	-8894
▁lié	-8895
akers	-8896
▁cure	-8897
▁ille	-8898
ançais	-8899
▁Women	-8900
▁heavy	-8901
▁orbit	-8902
▁viend	-8903
▁Rwanda	-8904
▁assign	-8905
▁banque	-8906
▁donnée	-8907
▁stable	-8908
▁emplois	-8909
▁guerres	-8910
▁habitat	-8911
▁variety	-8912
▁released	-8913
▁schizoph	-8914
▁convinced	-8915
▁mécanique	-8916
▁obstacles	-8917
▁vêtements	-8918
▁catastroph	-8919
▁pharmaceut	-8920
▁résolution	-8921
▁particulière	-8922
▁communications	-8923
ula	-8924
That	-8925
aled	-8926
▁shut	-8927
effond	-8928
naires	-8929
onents	-8930
▁biens	-8931
▁jaune	-8932
▁prove	-8933
▁risks	-8934
▁vague	-8935
▁explan	-8936
▁souffr	-8937
écriture	-8938
▁magasin	-8939
▁players	-8940
▁promise	-8941
▁travaux	-8942
nellement	-8943
▁feelings	-8944
▁méthodes	-8945
▁ordinary	-8946
▁réussite	-8947
▁activités	-8948
▁designing	-8949
▁embarrass	-8950
ua	-8951
ctu	-8952
exc	-8953
▁PD	-8954
▁ci	-8955
opia	-8956
otel	-8957
umin	-8958
▁Env	-8959
▁ear	-8960
▁tab	-8961
esome	-8962
trait	-8963
▁Chac	-8964
▁diet	-8965
▁eaux	-8966
▁enem	-8967
▁quit	-8968
▁unit	-8969
illage	-8970
vation	-8971
▁achet	-8972
▁empty	-8973
▁advert	-8974
▁damage	-8975
▁deeper	-8976
▁establ	-8977
▁portée	-8978
astiques	-8979
▁chromos	-8980
▁cutting	-8981
▁illness	-8982
▁joueurs	-8983
▁opening	-8984
▁Japanese	-8985
▁décennie	-8986
▁requires	-8987
▁frontière	-8988
▁yesterday	-8989
▁rassembler	-8990
▁circulation	-8991
▁compétition	-8992
▁opportunités	-8993
▁fonctionnement	-8994
LA	-8995
▁'9	-8996
gent	-8997
ller	-8998
ueux	-8999
▁Dis	-9000
▁Ver	-9001
▁lad	-9002
▁lay	-9003
▁luc	-9004
encer	-9005
▁Gree	-9006
▁Wall	-9007
▁kick	-9008
▁nett	-9009
▁snow	-9010
▁toit	-9011
essaie	-9012
hommes	-9013
rogène	-9014
▁digit	-9015
▁holes	-9016
▁minor	-9017
▁absorb	-9018
▁blancs	-9019
▁hospit	-9020
▁anciens	-9021
▁conduis	-9022
▁conseil	-9023
▁ramener	-9024
▁regular	-9025
▁bataille	-9026
▁exchange	-9027
▁accidents	-9028
▁controvers	-9029
▁properties	-9030
▁reconnaiss	-9031
▁intervention	-9032
▁dî	-9033
dent	-9034
ombe	-9035
▁Vir	-9036
▁por	-9037
▁tex	-9038
▁Gand	-9039
▁blow	-9040
▁ends	-9041
▁mène	-9042
otechn	-9043
▁Carol	-9044
▁State	-9045
▁Super	-9046
▁cards	-9047
▁grain	-9048
▁servi	-9049
▁signs	-9050
▁veget	-9051
orthern	-9052
uration	-9053
▁Health	-9054
▁civile	-9055
▁driver	-9056
▁frères	-9057
▁houses	-9058
▁remain	-9059
▁singes	-9060
orations	-9061
▁Congrès	-9062
▁compter	-9063
▁killing	-9064
▁mentale	-9065
▁paradox	-9066
▁rapidly	-9067
▁dialogue	-9068
▁epidemic	-9069
▁souvenez	-9070
▁vertical	-9071
▁cependant	-9072
▁véhicules	-9073
▁electrical	-9074
▁represents	-9075
▁transplant	-9076
▁fondamentale	-9077
▁réchauffement	-9078
aks	-9079
hyp	-9080
lyn	-9081
gets	-9082
prof	-9083
▁120	-9084
▁esc	-9085
▁noy	-9086
▁rav	-9087
ifiée	-9088
ouvre	-9089
rence	-9090
▁Swed	-9091
▁cath	-9092
▁copy	-9093
▁scén	-9094
▁synd	-9095
▁tail	-9096
▁user	-9097
acters	-9098
écrire	-9099
▁Bible	-9100
▁Black	-9101
▁illég	-9102
▁indig	-9103
▁poign	-9104
▁waves	-9105
▁aurons	-9106
▁nouvel	-9107
▁passés	-9108
▁poetry	-9109
▁retard	-9110
▁grandir	-9111
▁hauteur	-9112
▁mettons	-9113
▁nombres	-9114
▁requins	-9115
▁spatial	-9116
▁advanced	-9117
▁lumières	-9118
▁according	-9119
▁characters	-9120
▁enthousias	-9121
▁underneath	-9122
▁traitements	-9123
ader	-9124
ompe	-9125
▁Mat	-9126
▁Sep	-9127
essed	-9128
iency	-9129
isées	-9130
▁Narr	-9131
▁tape	-9132
entraî	-9133
iables	-9134
omment	-9135
▁Jusqu	-9136
▁gagne	-9137
▁grimp	-9138
▁allant	-9139
▁avenir	-9140
▁facing	-9141
▁disparu	-9142
▁faibles	-9143
▁sending	-9144
▁victims	-9145
▁attitude	-9146
▁gentlemen	-9147
▁métaphore	-9148
▁opération	-9149
▁puissions	-9150
▁inequality	-9151
cons	-9152
▁USA	-9153
▁tow	-9154
idées	-9155
lease	-9156
▁Last	-9157
ouille	-9158
▁fract	-9159
▁liked	-9160
▁rejet	-9161
areness	-9162
▁retire	-9163
▁schéma	-9164
▁trials	-9165
▁connaît	-9166
▁galaxie	-9167
▁longues	-9168
▁sagesse	-9169
▁remarque	-9170
▁tomorrow	-9171
▁whenever	-9172
▁carefully	-9173
▁contempor	-9174
▁professor	-9175
▁transforme	-9176
▁specifically	-9177
uba	-9178
ifie	-9179
ingt	-9180
▁Mah	-9181
▁Sir	-9182
forme	-9183
icier	-9184
ifiés	-9185
▁Perm	-9186
▁hurt	-9187
▁ling	-9188
▁Could	-9189
▁Gates	-9190
▁amène	-9191
▁awful	-9192
▁écran	-9193
▁champs	-9194
▁courir	-9195
▁crimes	-9196
▁donnez	-9197
▁height	-9198
▁tissus	-9199
▁Britain	-9200
▁battery	-9201
▁liquide	-9202
▁écosyst	-9203
existence	-9204
▁exercise	-9205
▁parfaite	-9206
▁stations	-9207
▁versions	-9208
▁descendre	-9209
▁fonctions	-9210
▁standards	-9211
▁sentiments	-9212
▁relativement	-9213
igr	-9214
▁AB	-9215
▁Dé	-9216
mans	-9217
osis	-9218
rage	-9219
viol	-9220
▁Gen	-9221
▁bri	-9222
▁hol	-9223
onaut	-9224
▁Sing	-9225
▁dots	-9226
▁ping	-9227
ailles	-9228
object	-9229
pitaux	-9230
▁Nouve	-9231
▁broke	-9232
▁mobil	-9233
▁tiens	-9234
envoyer	-9235
▁garant	-9236
▁parole	-9237
▁artiste	-9238
▁display	-9239
▁forment	-9240
▁miracle	-9241
▁prouver	-9242
▁voisins	-9243
▁emerging	-9244
▁individu	-9245
▁thoughts	-9246
▁publicité	-9247
▁quasiment	-9248
▁effectively	-9249
▁normalement	-9250
▁intellectual	-9251
▁possibilities	-9252
▁technologique	-9253
ti	-9254
ban	-9255
agés	-9256
anze	-9257
quée	-9258
▁foi	-9259
▁pin	-9260
▁sett	-9261
▁spin	-9262
alisée	-9263
stream	-9264
▁chefs	-9265
▁grade	-9266
▁monte	-9267
▁negot	-9268
▁pairs	-9269
▁sight	-9270
anglais	-9271
essence	-9272
itarian	-9273
▁diapos	-9274
▁medium	-9275
▁passée	-9276
▁player	-9277
▁stupéf	-9278
▁details	-9279
▁feuille	-9280
▁paralys	-9281
▁ancêtres	-9282
▁generate	-9283
▁lifetime	-9284
▁panneaux	-9285
▁cliniques	-9286
▁identifier	-9287
hh	-9288
lan	-9289
▁Ju	-9290
hold	-9291
once	-9292
▁Ess	-9293
▁coh	-9294
inson	-9295
▁Cour	-9296
alisés	-9297
pected	-9298
études	-9299
▁biais	-9300
▁claim	-9301
▁libér	-9302
▁prime	-9303
▁aimons	-9304
▁cheval	-9305
▁essaye	-9306
▁neuron	-9307
▁review	-9308
▁étapes	-9309
▁globale	-9310
▁positif	-9311
▁suscept	-9312
expliquer	-9313
icalement	-9314
▁augmenté	-9315
▁convince	-9316
▁handicap	-9317
▁required	-9318
▁spectacle	-9319
opportunité	-9320
▁traditions	-9321
na	-9322
▁Ha	-9323
▁LG	-9324
uste	-9325
èche	-9326
▁Gab	-9327
ailed	-9328
▁Mand	-9329
▁lady	-9330
▁lait	-9331
▁guide	-9332
▁trace	-9333
anément	-9334
imagine	-9335
▁define	-9336
▁exclus	-9337
▁member	-9338
▁pousse	-9339
▁tenter	-9340
▁Antarct	-9341
▁Project	-9342
▁dessins	-9343
▁forests	-9344
▁prisonn	-9345
▁records	-9346
abilities	-9347
▁chemistry	-9348
▁producing	-9349
▁remplacer	-9350
▁réflexion	-9351
fri	-9352
kin	-9353
▁KB	-9354
bors	-9355
osse	-9356
▁vin	-9357
alles	-9358
ocent	-9359
rions	-9360
▁prat	-9361
▁ring	-9362
▁rose	-9363
iquent	-9364
source	-9365
▁cardi	-9366
▁chart	-9367
▁emmen	-9368
▁maman	-9369
▁pause	-9370
▁privé	-9371
entends	-9372
▁Global	-9373
▁auront	-9374
▁orange	-9375
▁rouges	-9376
▁status	-9377
▁éclair	-9378
▁Vietnam	-9379
▁contain	-9380
▁depends	-9381
▁lessons	-9382
▁prédire	-9383
▁réparer	-9384
▁visages	-9385
▁circuits	-9386
▁retrouve	-9387
orestation	-9388
▁mountains	-9389
▁quantique	-9390
▁variation	-9391
▁couverture	-9392
▁relatively	-9393
▁vulnerable	-9394
▁grandmother	-9395
▁extraordinaires	-9396
inv	-9397
mas	-9398
ols	-9399
▁3,	-9400
▁rh	-9401
ytoc	-9402
▁nor	-9403
▁ped	-9404
▁pla	-9405
enser	-9406
ocide	-9407
roits	-9408
▁Rome	-9409
▁cade	-9410
▁créd	-9411
▁evil	-9412
▁hero	-9413
▁lend	-9414
▁maps	-9415
▁visu	-9416
ucteur	-9417
▁Scott	-9418
▁envis	-9419
▁immeu	-9420
▁avance	-9421
▁intent	-9422
▁inters	-9423
▁length	-9424
▁locale	-9425
▁pierre	-9426
▁totale	-9427
▁volcan	-9428
▁roughly	-9429
▁circumst	-9430
▁graduate	-9431
▁heureuse	-9432
▁implique	-9433
▁remettre	-9434
▁bouteille	-9435
▁entertain	-9436
▁permanent	-9437
▁chimpanzés	-9438
▁diagnostic	-9439
▁dinosaures	-9440
▁politicians	-9441
▁BF	-9442
agée	-9443
aste	-9444
bola	-9445
chez	-9446
hyth	-9447
iber	-9448
▁Nat	-9449
▁fla	-9450
athan	-9451
power	-9452
▁mile	-9453
▁preg	-9454
▁sees	-9455
ielles	-9456
▁2009,	-9457
▁Since	-9458
▁croit	-9459
▁nutri	-9460
▁teeth	-9461
exemple	-9462
▁suppos	-9463
▁extract	-9464
▁terminé	-9465
▁Congress	-9466
▁modifier	-9467
▁médicaux	-9468
▁pourrons	-9469
équivalent	-9470
▁introduce	-9471
▁positions	-9472
Os	-9473
ati	-9474
hal	-9475
uve	-9476
cont	-9477
lies	-9478
roid	-9479
▁Jew	-9480
▁Moi	-9481
▁bul	-9482
hique	-9483
ifice	-9484
lying	-9485
rooms	-9486
▁pray	-9487
▁root	-9488
▁Mount	-9489
▁bleue	-9490
▁créée	-9491
▁délic	-9492
▁goals	-9493
▁poème	-9494
▁staff	-9495
isseurs	-9496
istique	-9497
▁Museum	-9498
▁blocks	-9499
▁fruits	-9500
▁engaged	-9501
▁facteur	-9502
▁funding	-9503
▁prisons	-9504
▁restent	-9505
▁hôpitaux	-9506
▁habitants	-9507
▁quartiers	-9508
▁Finalement	-9509
▁composants	-9510
▁variations	-9511
500	-9512
Non	-9513
box	-9514
lla	-9515
ura	-9516
ding	-9517
enus	-9518
laud	-9519
reed	-9520
▁ADN	-9521
▁Str	-9522
▁lac	-9523
idité	-9524
ituel	-9525
oncer	-9526
▁agré	-9527
▁cess	-9528
▁file	-9529
▁unus	-9530
bridge	-9531
entend	-9532
itchen	-9533
▁essai	-9534
▁fewer	-9535
▁inher	-9536
iconque	-9537
instant	-9538
▁prends	-9539
▁rendez	-9540
lication	-9541
▁centers	-9542
▁hackers	-9543
▁ouverte	-9544
▁primary	-9545
▁vaccine	-9546
▁retraite	-9547
▁savaient	-9548
▁véhicule	-9549
▁fascinant	-9550
▁mécanisme	-9551
▁foundation	-9552
▁exploration	-9553
▁participate	-9554
Ch	-9555
uk	-9556
ria	-9557
élo	-9558
▁33	-9559
▁Ty	-9560
agos	-9561
bell	-9562
gram	-9563
▁Acc	-9564
▁Net	-9565
▁Yet	-9566
▁rit	-9567
iring	-9568
iture	-9569
▁Arch	-9570
▁Gold	-9571
▁Star	-9572
▁cast	-9573
▁peng	-9574
▁subm	-9575
▁swim	-9576
▁tact	-9577
animal	-9578
▁balle	-9579
▁beaux	-9580
▁humor	-9581
▁sweet	-9582
▁ballon	-9583
▁clever	-9584
▁emploi	-9585
▁formed	-9586
▁accepté	-9587
▁gravité	-9588
▁mosquit	-9589
▁nerveux	-9590
▁observé	-9591
▁tension	-9592
▁traumat	-9593
▁vivants	-9594
▁consumer	-9595
▁déjeuner	-9596
▁explique	-9597
▁spectrum	-9598
▁valuable	-9599
▁Permettez	-9600
▁chemicals	-9601
▁commencez	-9602
▁expansion	-9603
▁interpret	-9604
▁pourcentage	-9605
▁transparent	-9606
▁International	-9607
run	-9608
ued	-9609
▁Hi	-9610
▁lâ	-9611
adow	-9612
enda	-9613
mons	-9614
▁bow	-9615
▁bét	-9616
▁cig	-9617
▁cub	-9618
acing	-9619
alled	-9620
▁Four	-9621
▁liés	-9622
▁2008,	-9623
▁Brook	-9624
▁distr	-9625
▁flash	-9626
▁input	-9627
▁jeter	-9628
▁poche	-9629
▁serre	-9630
▁spont	-9631
ultural	-9632
▁ancien	-9633
▁systém	-9634
▁thanks	-9635
▁visuel	-9636
agissent	-9637
occasion	-9638
▁Silicon	-9639
▁cartoon	-9640
▁minimum	-9641
▁savions	-9642
▁talents	-9643
▁colonies	-9644
▁faudrait	-9645
▁peinture	-9646
▁réfugiés	-9647
▁utilisez	-9648
▁forcément	-9649
▁résistance	-9650
▁description	-9651
▁discussions	-9652
▁fondamental	-9653
▁Deuxièmement	-9654
▁environments	-9655
▁utilisateurs	-9656
alog	-9657
otte	-9658
ôtel	-9659
▁Tes	-9660
▁mun	-9661
▁pip	-9662
▁gout	-9663
▁unex	-9664
▁Allez	-9665
▁Techn	-9666
▁incap	-9667
▁maîtr	-9668
▁metal	-9669
▁recul	-9670
assembl	-9671
▁Virgin	-9672
▁buying	-9673
▁chiens	-9674
▁fortun	-9675
▁improv	-9676
▁invité	-9677
▁microb	-9678
▁serais	-9679
▁tandis	-9680
approche	-9681
entendre	-9682
▁however	-9683
▁initial	-9684
▁reached	-9685
▁session	-9686
▁soudain	-9687
▁suicide	-9688
▁citation	-9689
▁empêcher	-9690
▁fossiles	-9691
▁venaient	-9692
▁Hollywood	-9693
▁chimpanze	-9694
▁substance	-9695
▁discipline	-9696
▁transformé	-9697
▁combination	-9698
▁personnages	-9699
▁proposition	-9700
▁Premièrement	-9701
▁evolutionary	-9702
▁sérieusement	-9703
iti	-9704
▁Di	-9705
uild	-9706
▁ens	-9707
▁sen	-9708
▁édu	-9709
adesh	-9710
raham	-9711
▁acte	-9712
▁amie	-9713
▁avoc	-9714
▁bare	-9715
▁drap	-9716
▁grid	-9717
▁inev	-9718
▁nose	-9719
▁poem	-9720
▁tank	-9721
veille	-9722
▁agent	-9723
▁cinqu	-9724
▁goods	-9725
▁kilos	-9726
▁sides	-9727
▁âgées	-9728
▁baisse	-9729
▁bottle	-9730
▁europé	-9731
▁forgot	-9732
▁motifs	-9733
▁simult	-9734
▁utiles	-9735
▁voisin	-9736
Pourquoi	-9737
ainement	-9738
▁Central	-9739
▁anthrop	-9740
▁blanche	-9741
▁moteurs	-9742
▁organes	-9743
▁outcome	-9744
▁regions	-9745
▁énormes	-9746
▁carrying	-9747
▁criminal	-9748
▁disaster	-9749
▁existing	-9750
▁montrant	-9751
▁perceive	-9752
▁relevant	-9753
▁Cambridge	-9754
▁generally	-9755
▁hospitals	-9756
▁précision	-9757
▁religions	-9758
▁symptômes	-9759
▁definitely	-9760
▁introduced	-9761
▁spécifique	-9762
▁conséquence	-9763
▁augmentation	-9764
▁naturellement	-9765
rie	-9766
▁ri	-9767
here	-9768
▁FBI	-9769
▁Tim	-9770
▁nar	-9771
▁orb	-9772
etics	-9773
tered	-9774
▁Dere	-9775
▁Long	-9776
▁grot	-9777
▁remo	-9778
▁unes	-9779
▁éche	-9780
dedans	-9781
ection	-9782
imming	-9783
▁Olymp	-9784
▁ambit	-9785
▁shall	-9786
▁chimie	-9787
▁insist	-9788
▁parach	-9789
▁parlez	-9790
▁season	-9791
▁skelet	-9792
▁worlds	-9793
▁anticip	-9794
▁include	-9795
▁inspire	-9796
▁panneau	-9797
▁affected	-9798
▁détruire	-9799
▁behaviors	-9800
▁ecosystem	-9801
▁increased	-9802
▁molecular	-9803
▁spiritual	-9804
▁comprenons	-9805
▁dispositif	-9806
▁terrorisme	-9807
▁partenaires	-9808
▁consommateurs	-9809
▁manufacturing	-9810
-1	-9811
agh	-9812
olo	-9813
ufs	-9814
sour	-9815
▁Bur	-9816
analy	-9817
chron	-9818
vable	-9819
échec	-9820
▁desk	-9821
▁lift	-9822
▁rene	-9823
Americ	-9824
icious	-9825
▁Gener	-9826
▁Titan	-9827
▁anten	-9828
▁camps	-9829
▁flies	-9830
▁pitch	-9831
▁tumor	-9832
▁vingt	-9833
▁vital	-9834
▁Anyway	-9835
▁actuel	-9836
▁adulte	-9837
▁advent	-9838
▁affirm	-9839
▁auprès	-9840
▁drives	-9841
▁drones	-9842
▁désesp	-9843
▁poster	-9844
▁pulled	-9845
▁sharks	-9846
appelait	-9847
atteindre	-9848
▁interven	-9849
▁symptoms	-9850
▁enseigner	-9851
▁narrative	-9852
▁worldwide	-9853
▁potentially	-9854
▁restaurants	-9855
▁reconnaissance	-9856
isms	-9857
osex	-9858
rime	-9859
whel	-9860
▁Cap	-9861
▁Day	-9862
▁LED	-9863
▁alé	-9864
▁gel	-9865
▁roy	-9866
▁sla	-9867
▁tél	-9868
▁clou	-9869
▁2000,	-9870
▁basée	-9871
▁blogs	-9872
▁degré	-9873
▁phras	-9874
▁rayon	-9875
parents	-9876
▁concur	-9877
▁décide	-9878
▁explor	-9879
▁factor	-9880
▁furent	-9881
▁limité	-9882
▁mirror	-9883
▁parall	-9884
▁phosph	-9885
▁propag	-9886
▁winter	-9887
▁applied	-9888
▁enfance	-9889
▁fragile	-9890
▁impacts	-9891
▁intrins	-9892
▁mistake	-9893
▁protest	-9894
▁modernes	-9895
▁password	-9896
▁printing	-9897
▁awareness	-9898
▁souvenirs	-9899
▁typically	-9900
▁physically	-9901
▁représentation	-9902
▁28	-9903
▁85	-9904
inez	-9905
what	-9906
▁Bab	-9907
Homme	-9908
aites	-9909
▁Fort	-9910
▁dogs	-9911
▁goût	-9912
▁loud	-9913
▁recr	-9914
▁runs	-9915
▁thin	-9916
entrée	-9917
▁Charl	-9918
▁keeps	-9919
▁membr	-9920
▁meurt	-9921
▁shame	-9922
▁squel	-9923
▁steel	-9924
▁tombé	-9925
▁usage	-9926
▁voire	-9927
▁belles	-9928
▁branch	-9929
▁bubble	-9930
▁conven	-9931
▁credit	-9932
▁créons	-9933
▁exposé	-9934
▁attacks	-9935
▁illegal	-9936
▁kitchen	-9937
▁mainten	-9938
▁excitant	-9939
▁intérêts	-9940
▁prepared	-9941
▁recorded	-9942
▁ridicule	-9943
▁computing	-9944
▁interests	-9945
▁traveling	-9946
▁permission	-9947
20	-9948
jug	-9949
atre	-9950
ming	-9951
mous	-9952
éras	-9953
▁Con	-9954
▁jol	-9955
dames	-9956
quare	-9957
▁Gore	-9958
▁méch	-9959
▁rede	-9960
▁tall	-9961
essaye	-9962
▁House	-9963
▁added	-9964
▁atoms	-9965
▁génie	-9966
▁intit	-9967
essions	-9968
▁fleurs	-9969
▁halluc	-9970
▁liquid	-9971
▁patent	-9972
▁résolu	-9973
▁sample	-9974
▁solved	-9975
▁awesome	-9976
▁commune	-9977
▁deviend	-9978
▁définir	-9979
▁essence	-9980
▁feature	-9981
▁operate	-9982
▁quarter	-9983
▁unusual	-9984
▁viruses	-9985
▁Mondiale	-9986
▁employees	-9987
▁framework	-9988
▁logiciels	-9989
▁newspaper	-9990
▁protected	-9991
▁puissants	-9992
▁auxquelles	-9993
▁components	-9994
▁continents	-9995
▁meaningful	-9996
▁récompense	-9997
▁surprenant	-9998
▁disparaître	-9999
▁transmettre	-10000
▁instructions	-10001
▁personnalité	-10002
Do	-10003
aa	-10004
lève	-10005
mbre	-10006
oons	-10007
phin	-10008
égét	-10009
éral	-10010
▁Jon	-10011
▁Six	-10012
▁reç	-10013
▁tar	-10014
ining	-10015
intes	-10016
▁gren	-10017
▁shop	-10018
stitut	-10019
▁Found	-10020
▁curve	-10021
▁ideal	-10022
▁nuage	-10023
▁topic	-10024
▁aperçu	-10025
▁desper	-10026
▁ingred	-10027
▁organs	-10028
▁oublié	-10029
▁rayons	-10030
▁severe	-10031
▁spring	-10032
▁abandon	-10033
▁cherché	-10034
▁magique	-10035
▁siècles	-10036
▁batterie	-10037
▁district	-10038
▁overwhel	-10039
▁probable	-10040
▁souhaite	-10041
▁étonnant	-10042
efficacité	-10043
▁neighbors	-10044
▁personally	-10045
▁terroristes	-10046
▁fundamentally	-10047
▁sophisticated	-10048
ET	-10049
cut	-10050
err	-10051
▁Bi	-10052
ador	-10053
hips	-10054
iest	-10055
phab	-10056
rète	-10057
▁mac	-10058
allée	-10059
eller	-10060
night	-10061
ètent	-10062
▁bicy	-10063
▁fave	-10064
▁lune	-10065
▁vibr	-10066
onneur	-10067
▁2007,	-10068
▁Moore	-10069
▁boite	-10070
▁chute	-10071
▁horse	-10072
▁siège	-10073
▁sympa	-10074
▁Soleil	-10075
▁campus	-10076
▁ignore	-10077
▁leçons	-10078
▁tumeur	-10079
▁élevés	-10080
▁donnant	-10081
▁fishing	-10082
▁harvest	-10083
▁inspiré	-10084
▁remains	-10085
▁sourire	-10086
▁voyager	-10087
équilibre	-10088
▁avantage	-10089
▁equality	-10090
▁provient	-10091
▁rational	-10092
▁stronger	-10093
▁transfer	-10094
▁mortality	-10095
▁quotidien	-10096
▁militaires	-10097
▁alternatives	-10098
▁bibliothèque	-10099
ato	-10100
▁SP	-10101
ouvé	-10102
▁Bay	-10103
▁Hen	-10104
▁Pan	-10105
isses	-10106
itann	-10107
lande	-10108
▁Eric	-10109
▁Jour	-10110
▁eggs	-10111
arante	-10112
▁atter	-10113
▁doubt	-10114
▁glaci	-10115
▁sugar	-10116
▁végét	-10117
▁cacher	-10118
▁placer	-10119
▁posséd	-10120
▁scared	-10121
▁Perhaps	-10122
▁amounts	-10123
▁britann	-10124
▁drogues	-10125
▁fraction	-10126
▁pleasure	-10127
▁convaincu	-10128
▁intuition	-10129
▁naturally	-10130
▁practical	-10131
▁activities	-10132
▁industries	-10133
▁innovative	-10134
▁processing	-10135
DA	-10136
enh	-10137
pte	-10138
▁MT	-10139
appr	-10140
assi	-10141
▁SMS	-10142
▁dop	-10143
emain	-10144
iante	-10145
influ	-10146
▁enqu	-10147
▁lanc	-10148
▁tang	-10149
▁tiré	-10150
allons	-10151
▁White	-10152
▁false	-10153
▁mètre	-10154
▁neige	-10155
▁recev	-10156
▁renew	-10157
▁thème	-10158
▁Pouvez	-10159
▁Russia	-10160
▁aftern	-10161
▁church	-10162
▁courte	-10163
▁encoun	-10164
▁garage	-10165
▁joined	-10166
▁reçoit	-10167
▁senses	-10168
▁apporté	-10169
▁aurions	-10170
▁drapeau	-10171
▁empathy	-10172
▁maximum	-10173
▁contrain	-10174
▁fabriqué	-10175
▁ultimate	-10176
▁vérifier	-10177
▁appellent	-10178
▁distances	-10179
▁excellent	-10180
imagination	-10181
▁algorithms	-10182
▁historique	-10183
▁profondeur	-10184
▁adolescents	-10185
Ang	-10186
hes	-10187
irl	-10188
▁CD	-10189
▁RB	-10190
Look	-10191
anie	-10192
apon	-10193
igue	-10194
ouch	-10195
▁Rem	-10196
▁eld	-10197
▁mad	-10198
activ	-10199
apper	-10200
itent	-10201
▁Bron	-10202
▁Norm	-10203
▁hits	-10204
▁infl	-10205
▁mand	-10206
▁saut	-10207
▁sulf	-10208
estres	-10209
ignant	-10210
▁Other	-10211
▁aging	-10212
▁barre	-10213
▁songs	-10214
▁usine	-10215
▁driven	-10216
▁illust	-10217
▁mondes	-10218
▁Bonjour	-10219
▁fluores	-10220
▁majeure	-10221
▁sortent	-10222
▁spectre	-10223
▁witness	-10224
▁flexible	-10225
▁vehicles	-10226
▁réactions	-10227
▁reproduire	-10228
▁magnifiques	-10229
▁énergétique	-10230
▁intelligente	-10231
En	-10232
Oui	-10233
sun	-10234
▁eh	-10235
kins	-10236
omin	-10237
part	-10238
ôles	-10239
▁Tas	-10240
▁mak	-10241
▁mel	-10242
aises	-10243
▁boss	-10244
▁chev	-10245
▁enne	-10246
▁fich	-10247
▁nage	-10248
▁pill	-10249
▁sédu	-10250
phones	-10251
▁Derek	-10252
▁Shang	-10253
▁Union	-10254
▁While	-10255
▁jambe	-10256
▁param	-10257
▁poste	-10258
▁sauce	-10259
ilience	-10260
▁Guerre	-10261
▁Voyons	-10262
▁bouton	-10263
▁condam	-10264
▁fisher	-10265
▁hoping	-10266
▁infirm	-10267
▁pingou	-10268
▁survey	-10269
issaient	-10270
objectif	-10271
▁cancers	-10272
▁chanter	-10273
▁docteur	-10274
▁gravity	-10275
▁phrases	-10276
▁privacy	-10277
▁remonte	-10278
▁unknown	-10279
partement	-10280
▁contrast	-10281
▁espérons	-10282
▁feuilles	-10283
▁hydrogen	-10284
▁recueill	-10285
▁collision	-10286
▁lendemain	-10287
▁mechanism	-10288
▁mammifères	-10289
▁passionate	-10290
▁journaliste	-10291
▁probabilité	-10292
investissement	-10293
▁technological	-10294
70	-10295
CA	-10296
▁gê	-10297
attr	-10298
haut	-10299
ifth	-10300
▁rév	-10301
▁tes	-10302
▁éte	-10303
icies	-10304
lines	-10305
oient	-10306
▁Also	-10307
▁Brun	-10308
▁aimé	-10309
▁dieu	-10310
▁outc	-10311
▁rats	-10312
▁sain	-10313
▁wars	-10314
active	-10315
friend	-10316
▁aurez	-10317
▁lying	-10318
▁ought	-10319
▁retir	-10320
acheter	-10321
ologies	-10322
▁Nobody	-10323
▁Oxford	-10324
▁acquis	-10325
▁connue	-10326
▁fertil	-10327
▁nuages	-10328
▁rentre	-10329
▁repous	-10330
▁designs	-10331
▁dropped	-10332
▁equally	-10333
▁housing	-10334
▁profits	-10335
▁revenue	-10336
▁singing	-10337
▁stupide	-10338
videmment	-10339
▁centrale	-10340
▁concrete	-10341
▁dramatic	-10342
▁démonstr	-10343
▁features	-10344
▁policies	-10345
▁authority	-10346
▁operation	-10347
▁providing	-10348
▁publiques	-10349
▁économies	-10350
▁artistique	-10351
▁democratic	-10352
▁génétiques	-10353
▁permettant	-10354
▁souffrance	-10355
▁challenging	-10356
▁contribution	-10357
▁photographie	-10358
▁reproduction	-10359
▁supplémentaires	-10360
60	-10361
ems	-10362
▁ru	-10363
▁ér	-10364
agan	-10365
atar	-10366
ecte	-10367
itre	-10368
père	-10369
érés	-10370
▁Boy	-10371
▁Mod	-10372
▁Sar	-10373
▁lob	-10374
▁pul	-10375
▁toy	-10376
oster	-10377
▁athl	-10378
▁cere	-10379
▁corn	-10380
▁gasp	-10381
▁inév	-10382
▁nurs	-10383
▁shel	-10384
▁trig	-10385
▁unif	-10386
istics	-10387
▁2010,	-10388
▁3,000	-10389
▁avais	-10390
▁bulle	-10391
▁shark	-10392
issante	-10393
▁Russie	-10394
▁agreed	-10395
▁basket	-10396
▁concep	-10397
▁réserv	-10398
▁seules	-10399
▁tunnel	-10400
▁étoile	-10401
▁appliqu	-10402
▁electro	-10403
▁largely	-10404
▁suspect	-10405
▁vaccins	-10406
▁centaine	-10407
▁election	-10408
▁internal	-10409
▁pensions	-10410
▁sensible	-10411
▁synchron	-10412
ifications	-10413
▁afternoon	-10414
▁ancestors	-10415
▁avantages	-10416
▁dinosaurs	-10417
▁functions	-10418
▁nutrition	-10419
▁pratiques	-10420
▁récupérer	-10421
▁événement	-10422
▁difficulté	-10423
▁efficiency	-10424
▁naturelles	-10425
▁underwater	-10426
▁débarrasser	-10427
▁photographs	-10428
▁représenter	-10429
▁physiquement	-10430
top	-10431
▁ra	-10432
Asie	-10433
ench	-10434
irez	-10435
itée	-10436
nons	-10437
oral	-10438
▁dén	-10439
▁fum	-10440
eline	-10441
ignon	-10442
opard	-10443
rophe	-10444
▁1990	-10445
▁Sant	-10446
▁ampl	-10447
▁cycl	-10448
▁dile	-10449
▁joke	-10450
▁rela	-10451
▁sûre	-10452
ribles	-10453
▁Human	-10454
▁flott	-10455
▁grant	-10456
▁advice	-10457
▁pareil	-10458
▁répart	-10459
▁serons	-10460
▁struct	-10461
▁venons	-10462
empathie	-10463
identité	-10464
▁caméras	-10465
▁couches	-10466
▁pourrez	-10467
▁procédé	-10468
▁sentent	-10469
▁chimique	-10470
▁combined	-10471
▁conclure	-10472
▁présenté	-10473
▁fréquence	-10474
▁surrounded	-10475
▁biologiques	-10476
▁industrielle	-10477
▁transportation	-10478
lls	-10479
lés	-10480
pen	-10481
Nous	-10482
atta	-10483
foot	-10484
iait	-10485
irds	-10486
levé	-10487
lise	-10488
orph	-10489
▁lap	-10490
asive	-10491
otter	-10492
retch	-10493
▁Ever	-10494
▁High	-10495
▁June	-10496
▁Sovi	-10497
▁abst	-10498
▁cass	-10499
▁mere	-10500
▁pard	-10501
▁réal	-10502
▁tack	-10503
▁warn	-10504
reinte	-10505
▁océan	-10506
▁proto	-10507
▁sucre	-10508
▁étend	-10509
autisme	-10510
occuper	-10511
éritage	-10512
▁acting	-10513
▁auriez	-10514
▁cultiv	-10515
▁breathe	-10516
▁cigaret	-10517
▁créatif	-10518
▁franche	-10519
▁préféré	-10520
▁équipes	-10521
▁branches	-10522
▁discuter	-10523
▁investir	-10524
▁longueur	-10525
▁organisé	-10526
▁swimming	-10527
▁collected	-10528
▁militaire	-10529
▁quantités	-10530
▁élections	-10531
▁Foundation	-10532
▁psychology	-10533
▁difficultés	-10534
▁mathématique	-10535
bly	-10536
has	-10537
▁Gi	-10538
▁205	-10539
▁Dès	-10540
▁Hey	-10541
▁Inc	-10542
▁Ray	-10543
▁Unf	-10544
aluer	-10545
iteur	-10546
▁barb	-10547
▁fête	-10548
▁milk	-10549
▁poly	-10550
▁tsun	-10551
ateful	-10552
father	-10553
▁intim	-10554
▁sales	-10555
▁thick	-10556
▁tubes	-10557
aliment	-10558
énormes	-10559
▁divert	-10560
▁espoir	-10561
▁garden	-10562
▁pattes	-10563
▁resist	-10564
▁traite	-10565
▁cooking	-10566
▁infected	-10567
▁mistakes	-10568
▁organism	-10569
▁préparer	-10570
▁tracking	-10571
▁vieilles	-10572
▁explained	-10573
▁quiconque	-10574
▁terrorism	-10575
▁confidence	-10576
▁literature	-10577
▁percentage	-10578
▁poursuivre	-10579
▁apparemment	-10580
Ou	-10581
gi	-10582
acé	-10583
dre	-10584
umn	-10585
▁Bo	-10586
▁Hé	-10587
crit	-10588
érop	-10589
▁clo	-10590
▁dil	-10591
▁dys	-10592
itors	-10593
ottes	-10594
riers	-10595
scale	-10596
sière	-10597
▁assu	-10598
▁bath	-10599
▁icon	-10600
▁sexy	-10601
▁ultr	-10602
▁Aussi	-10603
▁Bangl	-10604
▁Bronx	-10605
▁avéré	-10606
▁storm	-10607
▁taste	-10608
▁trend	-10609
retagne	-10610
▁affich	-10611
▁banlie	-10612
▁défaut	-10613
▁ennuye	-10614
▁stayed	-10615
▁touché	-10616
▁tourné	-10617
▁worker	-10618
▁clothes	-10619
▁diriger	-10620
▁fingers	-10621
▁abstract	-10622
▁measured	-10623
▁memories	-10624
▁occurred	-10625
▁protéine	-10626
▁sunlight	-10627
▁fondation	-10628
▁implement	-10629
▁précédent	-10630
▁reçoivent	-10631
▁réduction	-10632
▁partenaire	-10633
▁Unfortunately	-10634
▁circumstances	-10635
On	-10636
▁42	-10637
▁AK	-10638
▁Os	-10639
onds	-10640
onna	-10641
▁Bre	-10642
▁Met	-10643
▁déd	-10644
▁wid	-10645
accro	-10646
eding	-10647
onard	-10648
ènent	-10649
▁Irak	-10650
▁Mike	-10651
▁Quoi	-10652
▁Vrai	-10653
▁abus	-10654
▁banc	-10655
▁mets	-10656
▁sets	-10657
▁sond	-10658
angers	-10659
auteur	-10660
tember	-10661
écoute	-10662
▁embed	-10663
▁facil	-10664
▁lions	-10665
▁mines	-10666
▁resté	-10667
▁roads	-10668
▁vente	-10669
▁acoust	-10670
▁aident	-10671
▁boring	-10672
▁deploy	-10673
▁franch	-10674
▁pollin	-10675
▁remove	-10676
▁tested	-10677
aneously	-10678
▁Quelque	-10679
▁borders	-10680
▁charges	-10681
▁chicken	-10682
▁defined	-10683
▁dispers	-10684
▁graines	-10685
▁nowhere	-10686
▁persist	-10687
▁sensors	-10688
▁solving	-10689
▁tonight	-10690
▁younger	-10691
▁électro	-10692
▁accurate	-10693
▁allowing	-10694
▁baleines	-10695
▁capteurs	-10696
▁dépenser	-10697
▁remarquer	-10698
▁trouverez	-10699
▁vaisseaux	-10700
▁appreciate	-10701
▁algorithmes	-10702
▁psychologie	-10703
▁professionnels	-10704
dam	-10705
etr	-10706
etch	-10707
pher	-10708
▁Hel	-10709
▁Lou	-10710
▁Mag	-10711
▁nit	-10712
icted	-10713
ombre	-10714
▁Five	-10715
▁Ford	-10716
▁Josh	-10717
▁Only	-10718
▁boom	-10719
▁dose	-10720
▁limb	-10721
▁summ	-10722
▁wine	-10723
Orient	-10724
imagin	-10725
▁coinc	-10726
▁coupe	-10727
▁fleur	-10728
▁foule	-10729
▁hydro	-10730
▁tours	-10731
▁upper	-10732
▁border	-10733
▁compat	-10734
▁deaths	-10735
▁handle	-10736
▁millim	-10737
▁reject	-10738
▁rocket	-10739
▁vagues	-10740
▁Environ	-10741
▁Pacific	-10742
▁calculs	-10743
▁falling	-10744
▁hôpital	-10745
▁retirer	-10746
▁amoureux	-10747
▁chansons	-10748
▁presence	-10749
▁somewhat	-10750
▁visuelle	-10751
▁wireless	-10752
▁animation	-10753
▁caractère	-10754
▁chirurgie	-10755
▁selection	-10756
▁sensitive	-10757
▁greenhouse	-10758
▁politiciens	-10759
▁pratiquement	-10760
▁presentation	-10761
▁collaborative	-10762
▁véritablement	-10763
OK	-10764
cel	-10765
▁Es	-10766
▁LT	-10767
▁Ré	-10768
elez	-10769
ifer	-10770
illy	-10771
isez	-10772
west	-10773
élic	-10774
▁193	-10775
▁Pap	-10776
▁pic	-10777
▁tor	-10778
being	-10779
▁Come	-10780
▁Hong	-10781
▁inég	-10782
▁mice	-10783
▁mout	-10784
▁peak	-10785
▁rect	-10786
▁soie	-10787
▁tran	-10788
▁angry	-10789
▁drone	-10790
▁foyer	-10791
▁hotel	-10792
▁japon	-10793
▁jurid	-10794
▁liées	-10795
▁theme	-10796
▁trave	-10797
▁button	-10798
▁flower	-10799
▁laptop	-10800
▁signes	-10801
▁solide	-10802
▁closely	-10803
▁confirm	-10804
▁donnait	-10805
▁reverse	-10806
▁dominant	-10807
▁horizont	-10808
▁médicale	-10809
▁proteins	-10810
▁determine	-10811
▁exposition	-10812
▁resistance	-10813
▁électronique	-10814
Il	-10815
Bon	-10816
▁0,	-10817
appy	-10818
aure	-10819
opol	-10820
umps	-10821
urre	-10822
▁Kev	-10823
elson	-10824
gypte	-10825
level	-10826
ogram	-10827
uther	-10828
▁Ethi	-10829
▁Prof	-10830
▁busy	-10831
▁exéc	-10832
▁fake	-10833
▁gluc	-10834
▁mail	-10835
▁obsc	-10836
▁paqu	-10837
▁scar	-10838
emploi	-10839
making	-10840
▁Selon	-10841
▁dossi	-10842
▁offre	-10843
▁rooms	-10844
▁senti	-10845
▁split	-10846
▁tente	-10847
ishment	-10848
▁config	-10849
▁cycles	-10850
▁moelle	-10851
Occident	-10852
abilités	-10853
enregist	-10854
▁burning	-10855
▁couples	-10856
▁courses	-10857
▁evening	-10858
▁fortune	-10859
▁overall	-10860
▁surmont	-10861
▁puissiez	-10862
▁restrict	-10863
▁syndrome	-10864
▁September	-10865
▁Something	-10866
▁combattre	-10867
▁automobile	-10868
▁controlled	-10869
▁ordinaires	-10870
▁catastrophe	-10871
▁composition	-10872
▁explanation	-10873
▁observation	-10874
▁spécifiques	-10875
▁neuroscience	-10876
▁psychological	-10877
▁sustainability	-10878
har	-10879
rak	-10880
erry	-10881
ooth	-10882
outs	-10883
pent	-10884
uing	-10885
▁Lin	-10886
▁Mur	-10887
▁Spe	-10888
▁alb	-10889
▁jan	-10890
▁meg	-10891
ensus	-10892
iaire	-10893
onome	-10894
▁Penn	-10895
▁ayez	-10896
▁bloc	-10897
▁firm	-10898
▁mété	-10899
▁vues	-10900
accept	-10901
asters	-10902
▁Heure	-10903
▁Latin	-10904
▁Power	-10905
▁canop	-10906
▁coups	-10907
▁depth	-10908
▁error	-10909
▁mesur	-10910
▁mâles	-10911
▁toile	-10912
adapter	-10913
▁anesth	-10914
▁assume	-10915
▁diplôm	-10916
▁détail	-10917
▁joueur	-10918
▁négoci	-10919
▁William	-10920
▁acteurs	-10921
▁combatt	-10922
▁emmener	-10923
▁libérer	-10924
▁passons	-10925
▁ridicul	-10926
▁salaire	-10927
▁therapy	-10928
▁accepter	-10929
▁accueill	-10930
▁circonst	-10931
▁dopamine	-10932
▁oreilles	-10933
▁Regardons	-10934
▁algorithm	-10935
▁carburant	-10936
▁centuries	-10937
▁objective	-10938
▁statement	-10939
▁laboratory	-10940
▁travaillait	-10941
▁radicalement	-10942
▁nécessairement	-10943
▁traditionnelle	-10944
hai	-10945
méd	-10946
▁29	-10947
Yeah	-10948
imal	-10949
uary	-10950
▁piz	-10951
acher	-10952
usage	-10953
èdent	-10954
▁chol	-10955
▁crev	-10956
▁ears	-10957
▁flew	-10958
▁liée	-10959
▁load	-10960
▁orph	-10961
▁surp	-10962
icides	-10963
iteurs	-10964
opping	-10965
usions	-10966
▁5,000	-10967
▁Ebola	-10968
▁fixed	-10969
▁invis	-10970
▁mises	-10971
▁prévu	-10972
Comment	-10973
analyse	-10974
animaux	-10975
▁Design	-10976
▁chaise	-10977
▁incons	-10978
▁rempli	-10979
▁salles	-10980
▁suffer	-10981
▁traces	-10982
▁Johnson	-10983
▁advance	-10984
▁causing	-10985
▁percept	-10986
▁samples	-10987
▁vessels	-10988
▁abstrait	-10989
▁innocent	-10990
▁interrog	-10991
▁présents	-10992
▁trouvait	-10993
▁événements	-10994
▁appropriate	-10995
▁destination	-10996
▁expressions	-10997
▁interactive	-10998
MA	-10999
ups	-11000
..."	-11001
oken	-11002
èges	-11003
▁20,	-11004
▁Sol	-11005
▁ate	-11006
belie	-11007
orial	-11008
venue	-11009
▁Stud	-11010
▁Tanz	-11011
▁anxi	-11012
▁fous	-11013
▁stro	-11014
▁tabl	-11015
espèce	-11016
▁Space	-11017
▁abuse	-11018
▁arabe	-11019
▁diarr	-11020
▁faced	-11021
▁formé	-11022
▁frank	-11023
▁géant	-11024
▁répét	-11025
▁stone	-11026
itative	-11027
▁Before	-11028
▁Number	-11029
▁Yorker	-11030
▁cinéma	-11031
▁inclus	-11032
▁poison	-11033
▁relate	-11034
▁signed	-11035
▁stabil	-11036
▁vraies	-11037
iliation	-11038
onnected	-11039
▁existed	-11040
▁générer	-11041
▁paralle	-11042
▁réserve	-11043
important	-11044
infrastru	-11045
▁Republic	-11046
▁creature	-11047
▁determin	-11048
▁download	-11049
▁essayent	-11050
▁expliqué	-11051
▁respirer	-11052
▁retrouvé	-11053
▁réfléchi	-11054
▁subjects	-11055
▁rassemble	-11056
▁capitalism	-11057
▁connexions	-11058
▁continuent	-11059
▁capitalisme	-11060
▁économistes	-11061
NU	-11062
cil	-11063
spe	-11064
▁NG	-11065
▁pâ	-11066
amas	-11067
ault	-11068
mark	-11069
midi	-11070
▁Bel	-11071
▁crâ	-11072
▁odd	-11073
irait	-11074
▁Simp	-11075
▁clos	-11076
▁douz	-11077
▁sale	-11078
▁Celle	-11079
▁Talib	-11080
▁Trans	-11081
▁cible	-11082
▁clock	-11083
▁datab	-11084
▁flood	-11085
▁ordre	-11086
▁prête	-11087
▁teams	-11088
▁trich	-11089
écouter	-11090
éricain	-11091
▁Albert	-11092
▁Nelson	-11093
▁Square	-11094
▁cadeau	-11095
▁corail	-11096
▁extent	-11097
▁extern	-11098
▁narrow	-11099
▁assurer	-11100
▁attempt	-11101
▁decline	-11102
▁diplôme	-11103
▁pushing	-11104
▁quelcon	-11105
▁diminuer	-11106
▁suggests	-11107
▁comprenez	-11108
▁conscient	-11109
▁destroyed	-11110
▁ignorance	-11111
▁primitive	-11112
▁profondes	-11113
▁signature	-11114
▁travaillais	-11115
But	-11116
ado	-11117
roc	-11118
rov	-11119
▁55	-11120
▁Att	-11121
▁Ban	-11122
▁ack	-11123
avage	-11124
cules	-11125
utile	-11126
▁Jose	-11127
▁Next	-11128
▁Soci	-11129
▁clar	-11130
▁elev	-11131
▁ence	-11132
▁indu	-11133
▁jail	-11134
▁médi	-11135
▁pomp	-11136
▁puce	-11137
▁pump	-11138
▁silk	-11139
athers	-11140
▁Satur	-11141
▁admit	-11142
▁boxes	-11143
▁placé	-11144
▁voies	-11145
introdu	-11146
▁Howard	-11147
▁Newton	-11148
▁chante	-11149
▁claire	-11150
▁diffus	-11151
▁format	-11152
▁offert	-11153
▁owners	-11154
▁paraît	-11155
▁pilote	-11156
▁ritual	-11157
▁string	-11158
internet	-11159
▁apporte	-11160
▁interne	-11161
▁portent	-11162
▁sentais	-11163
▁Everyone	-11164
▁collapse	-11165
▁floating	-11166
▁français	-11167
▁outcomes	-11168
▁provided	-11169
▁wondered	-11170
▁batteries	-11171
▁multiples	-11172
▁partenari	-11173
Afghanistan	-11174
▁Bangladesh	-11175
▁littérature	-11176
BM	-11177
Eh	-11178
va	-11179
axe	-11180
bie	-11181
rey	-11182
▁3.	-11183
aucr	-11184
auté	-11185
ihad	-11186
tons	-11187
évol	-11188
▁Imp	-11189
▁mit	-11190
aming	-11191
eters	-11192
ineux	-11193
ouest	-11194
quant	-11195
▁Rand	-11196
▁Time	-11197
▁grab	-11198
▁hook	-11199
▁pace	-11200
▁wash	-11201
ipping	-11202
▁Brown	-11203
▁Delhi	-11204
▁cabin	-11205
▁dîner	-11206
▁motif	-11207
▁média	-11208
▁métal	-11209
engager	-11210
▁clouds	-11211
▁discut	-11212
▁détest	-11213
▁ladies	-11214
▁lifest	-11215
▁saison	-11216
▁struck	-11217
▁balloon	-11218
▁expliqu	-11219
▁manipul	-11220
▁offered	-11221
▁pensant	-11222
▁tsunami	-11223
▁Nouvelle	-11224
▁connecté	-11225
▁ressenti	-11226
▁scolaire	-11227
▁bénéfices	-11228
▁considéré	-11229
▁développe	-11230
▁emergency	-11231
▁provenant	-11232
▁electronic	-11233
▁unexpected	-11234
▁artificielle	-11235
My	-11236
00,	-11237
bra	-11238
gie	-11239
oln	-11240
▁PC	-11241
▁ow	-11242
comp	-11243
ende	-11244
fait	-11245
keys	-11246
tail	-11247
vier	-11248
yrus	-11249
▁Gén	-11250
▁roi	-11251
▁sty	-11252
ingue	-11253
uisse	-11254
umble	-11255
urban	-11256
▁1980	-11257
▁army	-11258
▁aéri	-11259
▁bref	-11260
▁pige	-11261
incoln	-11262
▁About	-11263
▁Never	-11264
▁bones	-11265
▁dilem	-11266
▁plage	-11267
▁sinon	-11268
▁weigh	-11269
ènement	-11270
▁agenda	-11271
▁assise	-11272
▁miroir	-11273
▁robust	-11274
▁réunir	-11275
▁silenc	-11276
▁stands	-11277
▁statut	-11278
exprimer	-11279
▁Mandela	-11280
▁Seattle	-11281
▁bombard	-11282
▁bureaux	-11283
▁channel	-11284
▁flowers	-11285
▁locales	-11286
▁raconté	-11287
▁rapides	-11288
▁symbole	-11289
hydrogène	-11290
▁agréable	-11291
▁docteurs	-11292
▁pourront	-11293
▁profiter	-11294
▁prostate	-11295
▁Basically	-11296
▁Christmas	-11297
▁disappear	-11298
▁economies	-11299
▁measuring	-11300
▁rejoindre	-11301
▁supérieur	-11302
▁télescope	-11303
inspiration	-11304
▁transports	-11305
ministration	-11306
▁transformed	-11307
▁automatiquement	-11308
▁infrastructures	-11309
ecd	-11310
yde	-11311
▁0.	-11312
lley	-11313
oter	-11314
rors	-11315
▁hey	-11316
aucun	-11317
opath	-11318
▁Jane	-11319
▁Talk	-11320
▁furn	-11321
ifting	-11322
quille	-11323
yright	-11324
▁beach	-11325
▁déplo	-11326
▁dérou	-11327
▁males	-11328
▁rares	-11329
▁spons	-11330
ciences	-11331
osphere	-11332
royable	-11333
érément	-11334
▁papers	-11335
▁repair	-11336
▁secure	-11337
▁sentez	-11338
▁Prenons	-11339
▁colonie	-11340
▁discrim	-11341
▁distant	-11342
▁raisonn	-11343
▁suggère	-11344
▁tremble	-11345
▁créature	-11346
▁director	-11347
▁retourné	-11348
▁tropical	-11349
▁wherever	-11350
▁breathing	-11351
▁curiosité	-11352
▁customers	-11353
▁minuscule	-11354
▁presented	-11355
▁contribute	-11356
▁economists	-11357
▁démonstration	-11358
▁personnellement	-11359
Or	-11360
▁Us	-11361
Iran	-11362
chée	-11363
ilib	-11364
zing	-11365
▁Nic	-11366
▁née	-11367
▁rur	-11368
icket	-11369
ratif	-11370
▁Coca	-11371
▁Gulf	-11372
▁Hans	-11373
▁Lune	-11374
▁Pass	-11375
▁Supp	-11376
▁Voix	-11377
▁chip	-11378
▁doul	-11379
▁hers	-11380
▁traî	-11381
▁west	-11382
ouvoir	-11383
unesse	-11384
▁Corée	-11385
▁alarm	-11386
▁anger	-11387
▁bidon	-11388
▁coins	-11389
▁dozen	-11390
▁legis	-11391
▁loint	-11392
▁modél	-11393
▁redes	-11394
▁title	-11395
▁vendu	-11396
▁étais	-11397
▁Andrew	-11398
▁Gandhi	-11399
▁atomes	-11400
▁behave	-11401
▁limits	-11402
▁margin	-11403
▁scream	-11404
▁sphère	-11405
▁curieux	-11406
▁embrace	-11407
▁entrain	-11408
▁glamour	-11409
▁library	-11410
▁prenant	-11411
▁routine	-11412
▁Remember	-11413
▁Shanghai	-11414
▁aliments	-11415
▁attendez	-11416
▁birthday	-11417
▁collègue	-11418
▁maintain	-11419
▁paradigm	-11420
▁essentiel	-11421
▁extension	-11422
▁increases	-11423
▁precisely	-11424
▁spreading	-11425
▁department	-11426
▁encourager	-11427
▁quelconque	-11428
exploitation	-11429
▁educational	-11430
▁anniversaire	-11431
▁journalistes	-11432
bul	-11433
ima	-11434
inn	-11435
log	-11436
pos	-11437
▁ic	-11438
Okay	-11439
anny	-11440
anou	-11441
erme	-11442
obil	-11443
▁Jud	-11444
▁Mel	-11445
▁Moz	-11446
▁bip	-11447
▁nur	-11448
agger	-11449
pring	-11450
uting	-11451
▁Hait	-11452
▁Octo	-11453
▁Rock	-11454
▁acts	-11455
▁plaf	-11456
▁sûrs	-11457
essent	-11458
lables	-11459
menter	-11460
souris	-11461
▁Aucun	-11462
▁Korea	-11463
▁Steph	-11464
▁Voyez	-11465
▁censé	-11466
▁ramen	-11467
▁youth	-11468
▁évent	-11469
appeler	-11470
▁Chacun	-11471
▁acknow	-11472
▁excuse	-11473
▁linked	-11474
▁marath	-11475
▁mascul	-11476
▁mérite	-11477
▁negoti	-11478
▁trains	-11479
▁whales	-11480
etically	-11481
fortable	-11482
isations	-11483
▁Finally	-11484
▁aveugle	-11485
▁carried	-11486
▁connait	-11487
▁feeding	-11488
▁poumons	-11489
▁suivent	-11490
opération	-11491
▁drinking	-11492
▁equation	-11493
▁hallucin	-11494
▁rappelez	-11495
▁rarement	-11496
▁Christian	-11497
▁continued	-11498
▁explosion	-11499
▁infection	-11500
▁partagent	-11501
▁recording	-11502
▁translate	-11503
▁mechanical	-11504
▁represented	-11505
▁gratuitement	-11506
▁transparence	-11507
▁automatically	-11508
▁circonstances	-11509
▁installations	-11510
lor	-11511
zes	-11512
édé	-11513
ayer	-11514
cean	-11515
gant	-11516
éria	-11517
▁Jam	-11518
▁Wow	-11519
▁foc	-11520
▁tol	-11521
Islam	-11522
isser	-11523
moins	-11524
orous	-11525
usses	-11526
▁logo	-11527
▁pest	-11528
called	-11529
profit	-11530
▁Henry	-11531
▁bombe	-11532
▁décès	-11533
▁entré	-11534
▁falls	-11535
▁finit	-11536
▁clinic	-11537
▁coraux	-11538
▁désolé	-11539
▁ingréd	-11540
▁jusque	-11541
▁monkey	-11542
▁offici	-11543
▁traité	-11544
▁Lincoln	-11545
▁diverse	-11546
▁détaill	-11547
▁indique	-11548
▁origami	-11549
▁évoluer	-11550
▁Brooklyn	-11551
▁Vraiment	-11552
▁ancienne	-11553
▁calculer	-11554
▁calories	-11555
▁engaging	-11556
▁incident	-11557
▁ministre	-11558
▁opinions	-11559
▁sexuelle	-11560
▁shoulder	-11561
▁énergies	-11562
▁celebrate	-11563
▁corporate	-11564
▁privilege	-11565
exploration	-11566
▁enregistré	-11567
▁professionnel	-11568
▁électroniques	-11569
RA	-11570
yo	-11571
war	-11572
▁ug	-11573
apor	-11574
four	-11575
lons	-11576
ouff	-11577
▁Mor	-11578
▁ère	-11579
ésité	-11580
▁Avez	-11581
▁Nick	-11582
▁Sout	-11583
▁Souv	-11584
▁Tony	-11585
▁horr	-11586
▁jazz	-11587
▁levé	-11588
agerie	-11589
avance	-11590
ifiant	-11591
isters	-11592
▁2011,	-11593
▁Brian	-11594
▁Clint	-11595
▁Gabby	-11596
▁advoc	-11597
▁chips	-11598
▁démén	-11599
▁grows	-11600
▁impat	-11601
▁Berlin	-11602
▁créant	-11603
▁fausse	-11604
▁fright	-11605
▁requin	-11606
▁toilet	-11607
▁careful	-11608
▁densité	-11609
▁frankly	-11610
▁malades	-11611
▁neither	-11612
▁savings	-11613
▁souffle	-11614
intention	-11615
▁achieved	-11616
▁analyser	-11617
▁comparer	-11618
▁infinite	-11619
▁intitulé	-11620
▁pregnant	-11621
▁rapports	-11622
▁astronaut	-11623
▁confident	-11624
▁footprint	-11625
▁identical	-11626
▁adolescent	-11627
▁infections	-11628
▁prototypes	-11629
▁distinction	-11630
▁franchement	-11631
▁Heureusement	-11632
▁dramatically	-11633
▁heureusement	-11634
▁observations	-11635
▁réfléchissez	-11636
Be	-11637
RM	-11638
ONU	-11639
adm	-11640
ona	-11641
▁31	-11642
▁ly	-11643
arme	-11644
inos	-11645
▁Dés	-11646
▁Fre	-11647
▁féd	-11648
▁péd	-11649
▁tea	-11650
astes	-11651
▁1960	-11652
▁Asie	-11653
▁Benj	-11654
▁Fond	-11655
▁Gard	-11656
▁Mill	-11657
▁Miss	-11658
▁Rese	-11659
▁arme	-11660
▁bike	-11661
▁renv	-11662
▁sinc	-11663
▁turb	-11664
▁Bruno	-11665
▁arbit	-11666
▁honey	-11667
▁imper	-11668
▁joint	-11669
▁judge	-11670
▁pizza	-11671
▁prize	-11672
▁relax	-11673
▁seuil	-11674
▁whist	-11675
▁écart	-11676
acement	-11677
atoires	-11678
érateur	-11679
▁Please	-11680
▁commod	-11681
▁evolve	-11682
▁facult	-11683
▁incorp	-11684
▁métier	-11685
▁réagir	-11686
▁sauter	-11687
▁spinal	-11688
▁traged	-11689
▁traits	-11690
Bretagne	-11691
éanmoins	-11692
▁consent	-11693
▁fournit	-11694
▁hormones	-11695
▁jeunesse	-11696
▁traverse	-11697
▁apprenons	-11698
▁télécharg	-11699
▁architects	-11700
▁financière	-11701
▁initiative	-11702
▁programmer	-11703
▁développent	-11704
▁conventional	-11705
▁potentiellement	-11706
Ne	-11707
OL	-11708
col	-11709
île	-11710
acte	-11711
inés	-11712
oine	-11713
olfe	-11714
▁190	-11715
▁alc	-11716
estim	-11717
inder	-11718
ollar	-11719
osion	-11720
ulous	-11721
▁1950	-11722
▁1970	-11723
▁Move	-11724
▁Prés	-11725
▁cash	-11726
▁dust	-11727
▁hybr	-11728
▁lets	-11729
▁loop	-11730
▁payé	-11731
▁sacs	-11732
▁seek	-11733
▁tech	-11734
acteur	-11735
instru	-11736
orique	-11737
▁basse	-11738
▁envah	-11739
▁tired	-11740
▁tourn	-11741
▁whale	-11742
Austral	-11743
ensible	-11744
étudier	-11745
▁Sweden	-11746
▁cordes	-11747
▁pocket	-11748
▁prepar	-11749
▁soyons	-11750
▁volant	-11751
▁January	-11752
▁Quelles	-11753
▁analyse	-11754
▁composé	-11755
▁donnons	-11756
▁earthqu	-11757
▁orchest	-11758
▁poorest	-11759
▁promote	-11760
▁réalise	-11761
▁storyte	-11762
▁stretch	-11763
▁accepted	-11764
▁approxim	-11765
▁attaques	-11766
▁brothers	-11767
▁mutation	-11768
▁naturels	-11769
▁obsessed	-11770
▁organize	-11771
▁parcours	-11772
▁remonter	-11773
▁accomplir	-11774
▁component	-11775
▁croyances	-11776
▁interagir	-11777
▁optimiste	-11778
▁tendances	-11779
▁chirurgien	-11780
▁identiques	-11781
▁journalist	-11782
▁stratégies	-11783
▁distributed	-11784
▁recognition	-11785
▁laboratoires	-11786
▁performances	-11787
any	-11788
nez	-11789
▁Po	-11790
aler	-11791
etes	-11792
olic	-11793
rain	-11794
rive	-11795
▁350	-11796
▁Aug	-11797
▁Dev	-11798
▁Ice	-11799
▁agr	-11800
▁cyl	-11801
▁hip	-11802
▁mim	-11803
▁sne	-11804
ablir	-11805
ctors	-11806
field	-11807
overn	-11808
▁Coll	-11809
▁Whit	-11810
▁bias	-11811
▁cage	-11812
▁coch	-11813
▁enzy	-11814
▁fest	-11815
▁mars	-11816
▁mush	-11817
▁nest	-11818
▁plug	-11819
▁relâ	-11820
images	-11821
udisme	-11822
▁Saint	-11823
▁alien	-11824
▁anecd	-11825
▁aston	-11826
▁boire	-11827
▁doors	-11828
▁exter	-11829
▁forts	-11830
▁freez	-11831
▁nourr	-11832
▁scary	-11833
▁serai	-11834
▁stere	-11835
▁blague	-11836
▁column	-11837
▁envoie	-11838
▁export	-11839
▁fabule	-11840
▁hearts	-11841
▁hunger	-11842
▁immune	-11843
▁proced	-11844
▁procès	-11845
▁précip	-11846
▁saisir	-11847
▁élevée	-11848
American	-11849
▁appréci	-11850
▁collaps	-11851
▁comparé	-11852
▁dancing	-11853
▁methods	-11854
▁récente	-11855
▁sembler	-11856
▁windows	-11857
ouverture	-11858
▁Africans	-11859
▁division	-11860
▁fauteuil	-11861
▁hardware	-11862
▁imagined	-11863
▁properly	-11864
▁traveled	-11865
▁vivaient	-11866
▁reference	-11867
▁telescope	-11868
▁développés	-11869
▁numériques	-11870
▁performing	-11871
▁principaux	-11872
augmentation	-11873
▁trajectoire	-11874
da	-11875
All	-11876
oto	-11877
▁Ap	-11878
▁DV	-11879
▁cô	-11880
▁ho	-11881
gers	-11882
obsc	-11883
oids	-11884
olet	-11885
ynth	-11886
▁192	-11887
▁gut	-11888
▁irr	-11889
▁raw	-11890
astre	-11891
burgh	-11892
peare	-11893
▁bars	-11894
▁disg	-11895
▁rail	-11896
▁îles	-11897
▁2005,	-11898
▁allem	-11899
▁audio	-11900
▁bombs	-11901
▁enemy	-11902
▁manqu	-11903
▁nôtre	-11904
▁seeds	-11905
▁walks	-11906
artiste	-11907
atrices	-11908
▁jouets	-11909
▁placed	-11910
▁rising	-11911
▁tables	-11912
▁thrown	-11913
▁trafic	-11914
cription	-11915
▁Chinois	-11916
▁appears	-11917
▁couvert	-11918
▁glacier	-11919
▁mammals	-11920
▁metabol	-11921
▁prosper	-11922
▁précise	-11923
▁robotic	-11924
▁soigner	-11925
▁surgeon	-11926
akespeare	-11927
influence	-11928
▁Benjamin	-11929
▁Research	-11930
▁apparaît	-11931
▁appeared	-11932
▁bureaucr	-11933
▁dauphins	-11934
▁disorder	-11935
▁faisions	-11936
▁malheure	-11937
▁overcome	-11938
▁produces	-11939
▁remercie	-11940
▁réserves	-11941
▁téléphon	-11942
▁committed	-11943
▁demandant	-11944
▁financier	-11945
▁ingénieur	-11946
▁protocell	-11947
▁religieux	-11948
▁Revolution	-11949
▁behavioral	-11950
▁contribuer	-11951
▁exhibition	-11952
▁strategies	-11953
▁controlling	-11954
▁productivité	-11955
▁contrairement	-11956
EC	-11957
And	-11958
Let	-11959
nal	-11960
rou	-11961
upt	-11962
▁MK	-11963
▁ok	-11964
amen	-11965
arry	-11966
chés	-11967
iées	-11968
ître	-11969
▁Get	-11970
▁god	-11971
▁még	-11972
▁ode	-11973
clear	-11974
ignor	-11975
imité	-11976
think	-11977
unité	-11978
while	-11979
étape	-11980
▁Hall	-11981
▁Mach	-11982
▁Nike	-11983
▁jung	-11984
▁maqu	-11985
▁prét	-11986
mental	-11987
orment	-11988
upiter	-11989
▁Kevin	-11990
▁aster	-11991
▁brown	-11992
▁decre	-11993
▁quête	-11994
▁toler	-11995
▁unité	-11996
▁écras	-11997
iveness	-11998
▁colony	-11999
▁couper	-12000
▁excess	-12001
▁frappé	-12002
▁mainly	-12003
▁montée	-12004
▁Clinton	-12005
▁amélior	-12006
▁attaque	-12007
▁classic	-12008
▁entered	-12009
▁mangent	-12010
▁plafond	-12011
▁raising	-12012
▁servent	-12013
▁conseils	-12014
▁diverses	-12015
▁elephant	-12016
▁grateful	-12017
▁guarante	-12018
▁meetings	-12019
▁parallel	-12020
▁preserve	-12021
▁vaccines	-12022
engagement	-12023
▁Pacifique	-12024
▁authentic	-12025
▁colleague	-12026
▁exploring	-12027
▁insurance	-12028
▁intéresse	-12029
▁parachute	-12030
▁supporter	-12031
▁équilibre	-12032
▁collecting	-12033
▁connecting	-12034
▁intentions	-12035
▁grandfather	-12036
▁interacting	-12037
▁installation	-12038
▁échantillons	-12039
▁caractéristique	-12040
Ex	-12041
Tu	-12042
pha	-12043
ulg	-12044
▁37	-12045
abes	-12046
amis	-12047
aule	-12048
ican	-12049
oler	-12050
opie	-12051
éfin	-12052
▁Eas	-12053
▁Kat	-12054
▁Mer	-12055
▁réd	-12056
atson	-12057
icien	-12058
ipped	-12059
istre	-12060
▁Jord	-12061
▁Pitt	-12062
▁Snow	-12063
▁clés	-12064
▁dame	-12065
▁iPod	-12066
orking	-12067
éviter	-12068
▁Haiti	-12069
▁Suède	-12070
▁aside	-12071
▁assur	-12072
▁gamin	-12073
▁monté	-12074
▁proth	-12075
▁recru	-12076
▁rhyth	-12077
▁smoke	-12078
▁stack	-12079
▁tries	-12080
mençons	-12081
through	-12082
▁Singap	-12083
▁dégrad	-12084
▁elimin	-12085
▁famine	-12086
▁improb	-12087
▁missed	-12088
▁neural	-12089
▁portes	-12090
▁repeat	-12091
▁Jupiter	-12092
▁gouvern	-12093
▁grosses	-12094
▁license	-12095
▁mystery	-12096
▁painful	-12097
▁publish	-12098
▁removed	-12099
▁Atlantic	-12100
▁academic	-12101
▁impliqué	-12102
▁réunions	-12103
▁transmet	-12104
Angleterre	-12105
▁consumers	-12106
▁demandais	-12107
▁demandait	-12108
▁disorders	-12109
▁musiciens	-12110
▁mutations	-12111
▁permettez	-12112
▁promotion	-12113
▁sensibles	-12114
▁telephone	-12115
▁cardiaques	-12116
▁commitment	-12117
▁construite	-12118
▁financiers	-12119
▁opérations	-12120
▁philosophy	-12121
▁projection	-12122
▁recognized	-12123
▁supérieure	-12124
▁Shakespeare	-12125
▁neighborhoods	-12126
▁discrimination	-12127
▁vieillissement	-12128
SP	-12129
bat	-12130
blé	-12131
lem	-12132
net	-12133
ords	-12134
uine	-12135
▁Ann	-12136
▁Méd	-12137
▁PDG	-12138
▁Pet	-12139
▁Rép	-12140
▁Ted	-12141
▁apt	-12142
accél	-12143
▁Hill	-12144
▁clav	-12145
▁flip	-12146
▁lung	-12147
▁mâle	-12148
▁rush	-12149
▁seas	-12150
▁stig	-12151
▁banks	-12152
▁blank	-12153
▁femin	-12154
▁fluid	-12155
▁mérit	-12156
▁plays	-12157
▁ratio	-12158
▁units	-12159
▁vache	-12160
dessous	-12161
étaires	-12162
▁attrap	-12163
▁bouill	-12164
▁plenty	-12165
▁prices	-12166
▁sphere	-12167
▁tombée	-12168
▁tribus	-12169
▁usines	-12170
changing	-12171
▁General	-12172
▁attirer	-12173
▁imaginé	-12174
▁métabol	-12175
▁unbelie	-12176
▁vouliez	-12177
▁whereas	-12178
individus	-12179
▁altitude	-12180
▁lunettes	-12181
▁théories	-12182
▁catégorie	-12183
▁copyright	-12184
▁organisme	-12185
▁pingouins	-12186
▁Commençons	-12187
▁permanence	-12188
▁réputation	-12189
▁sculptures	-12190
▁sophistiqu	-12191
▁philosophie	-12192
▁échantillon	-12193
▁productivity	-12194
▁entertainment	-12195
▁significative	-12196
raw	-12197
rix	-12198
alem	-12199
cton	-12200
fare	-12201
isan	-12202
olum	-12203
tems	-12204
thur	-12205
▁hat	-12206
▁pix	-12207
▁quo	-12208
ansas	-12209
enger	-12210
group	-12211
liers	-12212
ynman	-12213
▁Mess	-12214
▁erad	-12215
▁laid	-12216
▁leap	-12217
▁mini	-12218
▁panc	-12219
▁plot	-12220
rières	-12221
▁align	-12222
▁paire	-12223
▁wound	-12224
tements	-12225
érieurs	-12226
▁Watson	-12227
▁crises	-12228
▁devast	-12229
▁facial	-12230
aluation	-12231
▁Feynman	-12232
▁cricket	-12233
▁density	-12234
▁femelle	-12235
▁municip	-12236
▁rebuild	-12237
▁wanting	-12238
▁attached	-12239
▁darkness	-12240
▁embedded	-12241
▁isolated	-12242
▁marchent	-12243
▁primaire	-12244
▁ralentir	-12245
▁reaching	-12246
▁treating	-12247
▁Alexander	-12248
▁apartment	-12249
▁curiosity	-12250
▁diffusion	-12251
▁paludisme	-12252
▁practices	-12253
▁Geographic	-12254
▁nucléaires	-12255
▁architectes	-12256
▁personality	-12257
▁secondaires	-12258
▁universités	-12259
▁perspectives	-12260
▁reconstruire	-12261
At	-12262
di	-12263
eu	-12264
lli	-12265
oit	-12266
vin	-12267
ôts	-12268
▁4,	-12269
▁Bh	-12270
▁SW	-12271
▁Sl	-12272
▁gh	-12273
▁ov	-12274
otes	-12275
rite	-12276
▁50%	-12277
▁Amy	-12278
▁DVD	-12279
▁Kir	-12280
▁Sus	-12281
▁mén	-12282
▁Blue	-12283
▁Camp	-12284
▁Pole	-12285
▁delà	-12286
▁fulf	-12287
▁impl	-12288
▁sque	-12289
▁témo	-12290
humour	-12291
inière	-12292
économ	-12293
▁Grâce	-12294
▁folle	-12295
▁locom	-12296
▁sauvé	-12297
▁tasks	-12298
▁tromp	-12299
▁uncom	-12300
▁usual	-12301
century	-12302
obésité	-12303
▁boucle	-12304
▁corals	-12305
▁crying	-12306
▁divide	-12307
▁décoll	-12308
▁décomp	-12309
▁geomet	-12310
▁heroes	-12311
▁lovely	-12312
▁oldest	-12313
▁paraly	-12314
▁protoc	-12315
▁pushed	-12316
▁renfor	-12317
▁échoué	-12318
children	-12319
épidémie	-12320
▁beliefs	-12321
▁cheaper	-12322
▁citizen	-12323
▁dignité	-12324
▁extinct	-12325
▁homosex	-12326
▁monkeys	-12327
▁mystère	-12328
▁rejoint	-12329
habitants	-12330
ieusement	-12331
obscurité	-12332
▁controls	-12333
▁désastre	-12334
▁globally	-12335
▁involves	-12336
▁recovery	-12337
▁traduire	-12338
▁depending	-12339
▁souffrent	-12340
informatique	-12341
▁fluorescent	-12342
▁prisonniers	-12343
▁coordination	-12344
▁intéressants	-12345
▁universities	-12346
ki	-12347
wa	-12348
non	-12349
yan	-12350
iday	-12351
opin	-12352
tait	-12353
étér	-12354
▁enh	-12355
ading	-12356
endez	-12357
esity	-12358
iders	-12359
usted	-12360
èvres	-12361
▁TEDT	-12362
▁brow	-12363
▁débr	-12364
▁gray	-12365
▁pare	-12366
▁till	-12367
▁élab	-12368
entrer	-12369
▁Jones	-12370
▁Voice	-12371
▁coach	-12372
▁drove	-12373
▁gamme	-12374
▁liver	-12375
▁sacré	-12376
▁sexes	-12377
▁singe	-12378
▁yield	-12379
affaire	-12380
istoire	-12381
ogether	-12382
▁Econom	-12383
▁ajouté	-12384
▁emails	-12385
▁filter	-12386
▁goutte	-12387
▁hungry	-12388
▁latest	-12389
▁pathog	-12390
▁poussé	-12391
▁slides	-12392
▁spider	-12393
appareil	-12394
inventer	-12395
ressions	-12396
▁Nothing	-12397
▁arrivez	-12398
▁associé	-12399
▁banques	-12400
▁dioxide	-12401
▁divided	-12402
▁herself	-12403
▁négatif	-12404
▁révéler	-12405
▁survécu	-12406
▁échange	-12407
▁établir	-12408
Australie	-12409
▁captured	-12410
▁chocolat	-12411
▁démontré	-12412
▁dépenses	-12413
▁mondiaux	-12414
▁shopping	-12415
▁Alzheimer	-12416
▁connectés	-12417
▁lifestyle	-12418
▁microscop	-12419
▁obsession	-12420
▁robotique	-12421
▁virtually	-12422
▁apparaître	-12423
▁collaborat	-12424
▁confrontés	-12425
▁fascinated	-12426
▁mécanismes	-12427
▁antibiotics	-12428
▁disposition	-12429
▁principales	-12430
infrastructure	-12431
BA	-12432
BC	-12433
IS	-12434
ju	-12435
ady	-12436
▁JH	-12437
case	-12438
hour	-12439
isph	-12440
keep	-12441
omat	-12442
unis	-12443
▁Bol	-12444
▁Det	-12445
▁Kar	-12446
▁sed	-12447
▁tip	-12448
ommun	-12449
produ	-12450
▁Arct	-12451
▁géom	-12452
▁peer	-12453
▁sois	-12454
ancien	-12455
iminer	-12456
infect	-12457
onnées	-12458
▁Woman	-12459
▁banqu	-12460
▁cesse	-12461
▁crops	-12462
▁dirty	-12463
▁purch	-12464
▁relat	-12465
▁rocks	-12466
▁tight	-12467
ondance	-12468
ucteurs	-12469
usiness	-12470
éroport	-12471
▁Durant	-12472
▁carrés	-12473
▁cousin	-12474
▁escape	-12475
▁faveur	-12476
▁feront	-12477
▁graves	-12478
▁needle	-12479
▁poulet	-12480
▁powers	-12481
▁rendue	-12482
▁rescue	-12483
▁revoir	-12484
▁résumé	-12485
▁ventil	-12486
▁fulfill	-12487
▁glucose	-12488
▁mobiles	-12489
▁monitor	-12490
▁oublier	-12491
▁racines	-12492
▁refroid	-12493
▁archives	-12494
▁constaté	-12495
▁enseigne	-12496
▁estimate	-12497
▁fenêtres	-12498
▁gigantes	-12499
▁laughing	-12500
▁passions	-12501
▁reported	-12502
▁scénario	-12503
▁abandonné	-12504
▁africains	-12505
▁delivered	-12506
▁infantile	-12507
▁ordinaire	-12508
▁paintings	-12509
▁ressource	-12510
▁étrangers	-12511
▁intéressés	-12512
▁moustiques	-12513
▁plateforme	-12514
▁volunteers	-12515
▁financement	-12516
▁progression	-12517
▁construisent	-12518
▁soudainement	-12519
▁intelligentes	-12520
▁programmation	-12521
▁universitaire	-12522
dri	-12523
hop	-12524
yon	-12525
▁!"	-12526
▁72	-12527
fall	-12528
fond	-12529
plus	-12530
roll	-12531
▁Cur	-12532
▁Nan	-12533
▁Res	-12534
▁Ten	-12535
▁pne	-12536
onnée	-12537
ubble	-12538
▁Back	-12539
▁Prob	-12540
▁Rick	-12541
▁axis	-12542
▁bass	-12543
▁curr	-12544
▁dump	-12545
▁slog	-12546
▁émer	-12547
expert	-12548
otypes	-12549
rivent	-12550
▁Arist	-12551
▁Child	-12552
▁copie	-12553
▁likes	-12554
▁repos	-12555
▁rétro	-12556
▁utter	-12557
▁étiqu	-12558
osphère	-12559
édition	-12560
étation	-12561
▁20,000	-12562
▁Indeed	-12563
▁assure	-12564
▁barely	-12565
▁biolum	-12566
▁bullet	-12567
▁cosmos	-12568
▁normes	-12569
▁oiseau	-12570
▁weapon	-12571
▁writer	-12572
attendre	-12573
▁Islamic	-12574
▁brevets	-12575
▁entrent	-12576
▁faciles	-12577
▁mettant	-12578
▁obesity	-12579
▁ouverts	-12580
▁parlais	-12581
▁portion	-12582
▁remplir	-12583
▁sauvage	-12584
▁variété	-12585
▁visions	-12586
▁attraper	-12587
▁breaking	-12588
▁penguins	-12589
▁secteurs	-12590
▁shooting	-12591
▁textbook	-12592
▁Parkinson	-12593
▁compromis	-12594
▁consensus	-12595
▁dedicated	-12596
▁hypothèse	-12597
▁intuitive	-12598
▁nécessite	-12599
▁surmonter	-12600
interaction	-12601
▁Angleterre	-12602
▁historical	-12603
▁cooperation	-12604
▁constitution	-12605
▁efficacement	-12606
▁expectations	-12607
▁personnelles	-12608
▁satisfaction	-12609
acts	-12610
ione	-12611
ycle	-12612
▁Far	-12613
▁ONG	-12614
▁bug	-12615
aband	-12616
arbre	-12617
ayons	-12618
class	-12619
front	-12620
onnés	-12621
▁Bell	-12622
▁Gene	-12623
▁News	-12624
▁cute	-12625
▁empê	-12626
▁lens	-12627
▁lève	-12628
▁pool	-12629
▁surg	-12630
▁tenu	-12631
▁émet	-12632
ptions	-12633
▁Colle	-12634
▁River	-12635
▁embry	-12636
▁fuels	-12637
tection	-12638
▁50,000	-12639
▁Michel	-12640
▁Tasman	-12641
▁borrow	-12642
▁capita	-12643
▁célébr	-12644
▁dépass	-12645
▁genius	-12646
▁lutter	-12647
▁préjug	-12648
▁repose	-12649
▁régler	-12650
▁scales	-12651
itations	-12652
épendant	-12653
▁Stephen	-12654
▁baleine	-12655
▁dignity	-12656
▁entoure	-12657
▁peindre	-12658
▁texture	-12659
▁typique	-12660
▁arrivons	-12661
▁bactérie	-12662
▁créatifs	-12663
▁obstacle	-12664
▁official	-12665
▁paraître	-12666
▁solaires	-12667
▁vacances	-12668
exposition	-12669
▁construct	-12670
▁continues	-12671
▁déplacent	-12672
▁elsewhere	-12673
▁messieurs	-12674
▁poussière	-12675
▁printemps	-12676
▁apparently	-12677
▁biolumines	-12678
▁commission	-12679
▁culturelle	-12680
▁functional	-12681
▁invisibles	-12682
▁opposition	-12683
▁partageons	-12684
▁advertising	-12685
▁association	-12686
▁transporter	-12687
▁underground	-12688
▁antibiotiques	-12689
▁spectaculaire	-12690
ja	-12691
auf	-12692
nut	-12693
rof	-12694
neur	-12695
orch	-12696
osen	-12697
zens	-12698
▁80%	-12699
▁Emp	-12700
▁Mas	-12701
▁eut	-12702
▁nés	-12703
▁pub	-12704
There	-12705
flies	-12706
▁Kenn	-12707
▁porn	-12708
▁rely	-12709
▁siff	-12710
▁triv	-12711
▁voca	-12712
estine	-12713
éclair	-12714
▁McDon	-12715
▁céléb	-12716
▁fermé	-12717
▁hauts	-12718
▁jouet	-12719
▁lingu	-12720
▁menac	-12721
▁skull	-12722
interpr	-12723
ulteurs	-12724
▁diront	-12725
▁enrich	-12726
▁output	-12727
▁stages	-12728
▁surely	-12729
affaires	-12730
aticiens	-12731
▁Charlie	-12732
▁affront	-12733
▁couvrir	-12734
▁federal	-12735
▁opposed	-12736
▁potable	-12737
▁proposé	-12738
▁retenir	-12739
▁sachant	-12740
▁secours	-12741
▁virtuel	-12742
▁visited	-12743
▁conduite	-12744
▁domestic	-12745
▁magnetic	-12746
▁particle	-12747
▁proposer	-12748
▁provides	-12749
▁spatiale	-12750
▁Président	-12751
▁appliquer	-12752
▁fortement	-12753
▁generated	-12754
▁searching	-12755
▁uncertain	-12756
▁cartograph	-12757
▁incentives	-12758
▁écologique	-12759
▁britannique	-12760
▁coopération	-12761
▁prostitution	-12762
▁transparency	-12763
▁émotionnelle	-12764
▁environnements	-12765
eda	-12766
loc	-12767
los	-12768
obi	-12769
▁48	-12770
▁Ug	-12771
▁kg	-12772
bage	-12773
emic	-12774
ogén	-12775
▁90%	-12776
▁Aux	-12777
▁NSA	-12778
▁Out	-12779
▁Sea	-12780
▁Ses	-12781
▁pét	-12782
▁tig	-12783
aints	-12784
optim	-12785
▁Beij	-12786
▁Homo	-12787
▁beer	-12788
▁cube	-12789
▁gram	-12790
▁vice	-12791
▁étro	-12792
bercul	-12793
otique	-12794
▁Prize	-12795
▁Santa	-12796
▁aimez	-12797
▁coord	-12798
▁fifth	-12799
▁gorge	-12800
▁idiot	-12801
▁idéal	-12802
▁incon	-12803
▁mythe	-12804
▁outre	-12805
▁reten	-12806
▁sheep	-12807
▁téléc	-12808
asseoir	-12809
forward	-12810
étrique	-12811
▁Allons	-12812
▁Disney	-12813
▁Lorsqu	-12814
▁Steven	-12815
▁déprim	-12816
▁grains	-12817
▁hardly	-12818
▁layers	-12819
▁rentré	-12820
▁repart	-12821
▁sensor	-12822
▁ticket	-12823
▁triang	-12824
empêcher	-12825
essayais	-12826
▁allions	-12827
▁baisser	-12828
▁charity	-12829
▁comport	-12830
▁consume	-12831
▁publier	-12832
▁restait	-12833
▁scratch	-12834
▁superbe	-12835
▁uniques	-12836
▁assemble	-12837
▁contamin	-12838
▁diabetes	-12839
▁ennuyeux	-12840
▁entendez	-12841
▁essaient	-12842
▁lucratif	-12843
▁parvenir	-12844
▁sanguins	-12845
▁transist	-12846
▁épidémie	-12847
▁évidence	-12848
▁critiques	-12849
▁furniture	-12850
▁magnitude	-12851
▁privilège	-12852
▁optimistic	-12853
▁protecting	-12854
▁resolution	-12855
▁simplicité	-12856
▁conclusions	-12857
▁disappeared	-12858
▁apparaissent	-12859
▁architectural	-12860
.»	-12861
ETI	-12862
aby	-12863
ita	-12864
oue	-12865
▁IM	-12866
▁JF	-12867
adel	-12868
erey	-12869
icks	-12870
inse	-12871
ping	-12872
▁30,	-12873
▁Cin	-12874
▁Jac	-12875
▁Van	-12876
▁ooh	-12877
archy	-12878
aviez	-12879
eries	-12880
iogen	-12881
keley	-12882
▁dive	-12883
▁hire	-12884
▁nets	-12885
▁palm	-12886
▁whis	-12887
aignée	-12888
apping	-12889
aspect	-12890
lessly	-12891
usalem	-12892
venons	-12893
▁Donne	-12894
▁Media	-12895
▁absur	-12896
▁calme	-12897
▁panel	-12898
▁pires	-12899
▁plait	-12900
▁schol	-12901
▁tears	-12902
▁ultra	-12903
▁upset	-12904
▁verts	-12905
èvement	-12906
▁Daniel	-12907
▁apparu	-12908
▁arrang	-12909
▁bulles	-12910
▁chaude	-12911
▁chosen	-12912
▁contag	-12913
▁diable	-12914
▁frozen	-12915
▁legacy	-12916
▁locked	-12917
▁mentor	-12918
▁patrim	-12919
▁puisqu	-12920
▁supern	-12921
▁vivait	-12922
▁ceiling	-12923
▁conduct	-12924
▁defense	-12925
▁drivers	-12926
▁exposed	-12927
▁partagé	-12928
▁printed	-12929
▁smoking	-12930
▁trigger	-12931
▁voyages	-12932
▁Berkeley	-12933
▁Monterey	-12934
▁défendre	-12935
▁installé	-12936
▁refugees	-12937
étiquement	-12938
▁aléatoire	-12939
▁announced	-12940
▁chocolate	-12941
▁conflicts	-12942
▁portraits	-12943
▁reduction	-12944
▁sacrifice	-12945
▁sexuelles	-12946
▁suffisant	-12947
▁variables	-12948
▁Department	-12949
▁interfaces	-12950
▁maternelle	-12951
▁territoire	-12952
▁discoveries	-12953
▁explication	-12954
▁ingredients	-12955
▁occidentale	-12956
▁quotidienne	-12957
▁supplémentaire	-12958
So	-12959
Wow	-12960
eds	-12961
toi	-12962
▁Ac	-12963
▁Kh	-12964
▁MR	-12965
born	-12966
illé	-12967
utch	-12968
èner	-12969
érez	-12970
▁900	-12971
▁Ram	-12972
▁Ron	-12973
▁Sah	-12974
▁Tam	-12975
Union	-12976
alian	-12977
armes	-12978
habil	-12979
ommes	-12980
worth	-12981
écriv	-12982
▁Kong	-12983
▁Lego	-12984
▁Mass	-12985
▁Mons	-12986
▁bous	-12987
▁guns	-12988
▁ugly	-12989
archie	-12990
cedent	-12991
dollar	-12992
ualité	-12993
▁Louis	-12994
▁Ocean	-12995
▁absor	-12996
▁accus	-12997
▁affir	-12998
▁apple	-12999
▁caché	-13000
▁chest	-13001
▁fondé	-13002
▁gonna	-13003
▁inhab	-13004
▁laver	-13005
▁légis	-13006
▁opens	-13007
▁proof	-13008
▁stéré	-13009
▁wings	-13010
iscover	-13011
▁August	-13012
▁Portug	-13013
▁entrée	-13014
▁froide	-13015
▁spoken	-13016
▁transg	-13017
▁voyant	-13018
aughters	-13019
enseigne	-13020
▁absence	-13021
▁compell	-13022
▁gratuit	-13023
▁perturb	-13024
▁reviend	-13025
▁tragedy	-13026
▁victime	-13027
▁Children	-13028
▁Mesdames	-13029
▁Narrator	-13030
▁amateurs	-13031
▁contains	-13032
▁devienne	-13033
▁dolphins	-13034
▁détermin	-13035
▁external	-13036
▁musulman	-13037
▁provoque	-13038
▁périodes	-13039
▁scenario	-13040
▁symboles	-13041
▁tiennent	-13042
▁anciennes	-13043
▁attendant	-13044
▁backwards	-13045
▁encounter	-13046
▁magazines	-13047
▁parcourir	-13048
▁possèdent	-13049
▁affordable	-13050
▁supermarch	-13051
▁biologistes	-13052
▁champignons	-13053
DE	-13054
He	-13055
ît	-13056
llo	-13057
pet	-13058
uée	-13059
épr	-13060
▁Ir	-13061
▁JS	-13062
▁Ve	-13063
ayez	-13064
ifts	-13065
inda	-13066
oked	-13067
rale	-13068
tery	-13069
ueil	-13070
uyer	-13071
▁50,	-13072
▁Vol	-13073
▁Was	-13074
antic	-13075
arten	-13076
ierra	-13077
maker	-13078
▁Bern	-13079
▁Sand	-13080
▁ages	-13081
▁caps	-13082
▁hect	-13083
▁joli	-13084
▁liné	-13085
▁pink	-13086
charge	-13087
▁2004,	-13088
▁abund	-13089
▁actif	-13090
▁lobby	-13091
▁meter	-13092
▁monit	-13093
▁métro	-13094
▁revol	-13095
▁sheet	-13096
▁stops	-13097
▁taxes	-13098
▁têtes	-13099
▁valid	-13100
▁views	-13101
▁vivez	-13102
ocortex	-13103
▁Argent	-13104
▁Copenh	-13105
▁Europé	-13106
▁Really	-13107
▁dozens	-13108
▁emmené	-13109
▁emprun	-13110
▁fantas	-13111
▁farmer	-13112
▁majeur	-13113
▁masses	-13114
▁silent	-13115
▁titres	-13116
▁urbain	-13117
▁affecte	-13118
▁amongst	-13119
▁delight	-13120
▁diminue	-13121
▁disrupt	-13122
▁fassent	-13123
▁hanging	-13124
▁letting	-13125
▁mouches	-13126
▁passive	-13127
▁picking	-13128
▁reconnu	-13129
▁touched	-13130
▁vivante	-13131
▁agencies	-13132
▁extraire	-13133
▁fermiers	-13134
▁fragment	-13135
▁laissent	-13136
▁membrane	-13137
▁obtenons	-13138
▁sauvages	-13139
▁theories	-13140
▁thérapie	-13141
▁Allemagne	-13142
▁attendent	-13143
▁expertise	-13144
▁investing	-13145
▁boundaries	-13146
▁earthquake	-13147
▁governance	-13148
▁integrated	-13149
▁connaissais	-13150
▁essentielle	-13151
▁programming	-13152
▁interventions	-13153
▁merveilleuses	-13154
▁uncomfortable	-13155
▁characteristics	-13156
mal	-13157
osn	-13158
▁44	-13159
▁na	-13160
ideo	-13161
▁10-	-13162
▁Gro	-13163
▁Off	-13164
▁Sky	-13165
▁gro	-13166
▁vus	-13167
Ouest	-13168
arium	-13169
ckets	-13170
cular	-13171
grade	-13172
irons	-13173
rimin	-13174
rison	-13175
érale	-13176
▁Budd	-13177
▁debt	-13178
▁glad	-13179
▁lion	-13180
▁monn	-13181
▁verb	-13182
adelph	-13183
anding	-13184
ifiées	-13185
émisph	-13186
▁2006,	-13187
▁Absol	-13188
▁chers	-13189
▁corré	-13190
▁drawn	-13191
▁elder	-13192
▁finds	-13193
▁inclu	-13194
▁nager	-13195
▁régén	-13196
▁shake	-13197
▁veter	-13198
urgence	-13199
▁Colomb	-13200
▁actors	-13201
▁arrête	-13202
▁compli	-13203
▁dormir	-13204
▁emerge	-13205
▁excité	-13206
▁sacred	-13207
▁senior	-13208
▁shadow	-13209
▁smooth	-13210
▁étages	-13211
étranger	-13212
▁Atlanta	-13213
▁Muslims	-13214
▁accéder	-13215
▁anxiety	-13216
▁avancée	-13217
▁bicycle	-13218
▁diabète	-13219
▁enlever	-13220
▁légumes	-13221
▁painted	-13222
▁pleurer	-13223
▁rainfor	-13224
▁renvers	-13225
▁speaker	-13226
essentiel	-13227
sociation	-13228
▁examiner	-13229
▁inventer	-13230
▁marathon	-13231
▁minister	-13232
▁northern	-13233
▁paysages	-13234
▁promesse	-13235
▁conserver	-13236
▁constante	-13237
▁créateurs	-13238
▁diagnosed	-13239
▁extérieur	-13240
▁inspiring	-13241
▁reprendre	-13242
▁assistance	-13243
▁distribute	-13244
▁minuscules	-13245
▁secondaire	-13246
▁signifiait	-13247
alimentation	-13248
▁disciplines	-13249
▁limitations	-13250
▁spectacular	-13251
▁agricultural	-13252
▁biodiversité	-13253
▁breakthrough	-13254
▁propriétaire	-13255
▁régulièrement	-13256
Si	-13257
eal	-13258
ena	-13259
las	-13260
obt	-13261
oil	-13262
éte	-13263
▁46	-13264
▁Ye	-13265
izer	-13266
ship	-13267
uish	-13268
▁Fem	-13269
▁Vin	-13270
▁aer	-13271
▁aig	-13272
▁île	-13273
ersey	-13274
illet	-13275
irent	-13276
marin	-13277
▁Jenn	-13278
▁SETI	-13279
▁couv	-13280
▁gris	-13281
▁guid	-13282
▁infr	-13283
▁orth	-13284
▁sche	-13285
▁tied	-13286
▁éter	-13287
crimin	-13288
ituels	-13289
romagn	-13290
▁4,000	-13291
▁Laden	-13292
▁Sarah	-13293
▁Unies	-13294
▁Venez	-13295
▁knock	-13296
▁naked	-13297
▁ondes	-13298
▁piste	-13299
▁récit	-13300
▁tapis	-13301
▁Church	-13302
▁Scient	-13303
▁avancé	-13304
▁balles	-13305
▁déclin	-13306
▁détour	-13307
▁engagé	-13308
▁guérir	-13309
▁immers	-13310
▁paquet	-13311
▁served	-13312
▁trajet	-13313
▁trends	-13314
érieures	-13315
▁garbage	-13316
▁granted	-13317
▁passing	-13318
▁prévoir	-13319
▁recycle	-13320
▁refugee	-13321
▁regener	-13322
▁reports	-13323
▁welcome	-13324
▁arrivait	-13325
▁focusing	-13326
▁japonais	-13327
▁laughter	-13328
▁lighting	-13329
▁mystérie	-13330
▁parasite	-13331
▁poussent	-13332
▁variable	-13333
▁constater	-13334
▁effrayant	-13335
▁impliqués	-13336
▁suivantes	-13337
▁Antarctica	-13338
▁Philadelph	-13339
▁identified	-13340
▁mechanisms	-13341
▁équipement	-13342
entraînement	-13343
▁comparaison	-13344
▁computation	-13345
▁consequence	-13346
▁demonstrate	-13347
▁frustration	-13348
▁neuroscient	-13349
▁publication	-13350
▁alimentaires	-13351
▁investissement	-13352
Ah	-13353
rén	-13354
wan	-13355
▁BM	-13356
▁Id	-13357
▁Up	-13358
Irak	-13359
olas	-13360
rary	-13361
wing	-13362
▁10.	-13363
▁20%	-13364
▁Tok	-13365
▁pit	-13366
▁ski	-13367
acier	-13368
force	-13369
sters	-13370
truis	-13371
▁Matt	-13372
▁Vict	-13373
▁blah	-13374
▁fame	-13375
▁hamb	-13376
▁hiér	-13377
▁melt	-13378
▁mold	-13379
▁pant	-13380
▁poit	-13381
▁saur	-13382
aiment	-13383
asions	-13384
▁Force	-13385
▁Monde	-13386
▁Voila	-13387
▁ailes	-13388
▁décid	-13389
▁helic	-13390
▁ouvre	-13391
▁remix	-13392
▁revue	-13393
▁roots	-13394
▁récep	-13395
▁éparg	-13396
unction	-13397
▁Luther	-13398
▁Malgré	-13399
▁Things	-13400
▁camion	-13401
▁débats	-13402
▁emphas	-13403
▁fortes	-13404
▁frappe	-13405
▁mouche	-13406
▁nurses	-13407
▁proxim	-13408
▁richer	-13409
▁shrimp	-13410
▁subtle	-13411
▁ultime	-13412
▁voyait	-13413
ervation	-13414
vergence	-13415
▁applaud	-13416
▁déclaré	-13417
▁dépensé	-13418
▁marques	-13419
▁millier	-13420
▁paradis	-13421
▁pierres	-13422
▁pointed	-13423
organiser	-13424
▁attentes	-13425
▁database	-13426
▁doctorat	-13427
▁dynamics	-13428
▁produite	-13429
▁pyramide	-13430
▁repeated	-13431
▁romantic	-13432
▁symmetry	-13433
▁symétrie	-13434
▁tableaux	-13435
▁totalité	-13436
▁tubercul	-13437
▁dependent	-13438
▁mechanics	-13439
▁rendement	-13440
▁abandonner	-13441
▁capability	-13442
▁originally	-13443
▁simplicity	-13444
▁smartphone	-13445
▁struggling	-13446
▁volontaire	-13447
▁improvement	-13448
▁ingrédients	-13449
▁démocratique	-13450
syl	-13451
▁GG	-13452
▁RM	-13453
▁cm	-13454
chet	-13455
nipr	-13456
orps	-13457
raig	-13458
town	-13459
yard	-13460
▁160	-13461
▁Bet	-13462
▁CEO	-13463
▁Mos	-13464
▁Rec	-13465
▁Sys	-13466
▁tut	-13467
Where	-13468
epend	-13469
isode	-13470
ittle	-13471
stone	-13472
utive	-13473
▁Aust	-13474
▁Brad	-13475
▁Sund	-13476
▁Turn	-13477
▁clon	-13478
▁dish	-13479
▁guit	-13480
▁salt	-13481
▁sink	-13482
▁souc	-13483
erland	-13484
option	-13485
sembly	-13486
▁Tokyo	-13487
▁bière	-13488
▁casse	-13489
▁drill	-13490
▁gases	-13491
▁legit	-13492
▁links	-13493
▁lungs	-13494
▁marry	-13495
▁préco	-13496
▁sonne	-13497
▁unpre	-13498
▁vétér	-13499
▁yours	-13500
▁élève	-13501
perform	-13502
▁Faites	-13503
▁Jewish	-13504
▁Uganda	-13505
▁Wright	-13506
▁bourse	-13507
▁comics	-13508
▁découp	-13509
▁forcer	-13510
▁jungle	-13511
▁larmes	-13512
▁lawyer	-13513
▁mélang	-13514
▁oeuvre	-13515
▁perpét	-13516
▁rating	-13517
▁reveal	-13518
▁tricks	-13519
▁écouté	-13520
autorité	-13521
endroits	-13522
orcement	-13523
▁Pennsyl	-13524
▁circles	-13525
▁disturb	-13526
▁empêche	-13527
▁gagnent	-13528
▁géniale	-13529
▁peuples	-13530
▁plongée	-13531
▁prenait	-13532
▁recours	-13533
▁rendant	-13534
▁slavery	-13535
▁avancées	-13536
▁banlieue	-13537
▁chinoise	-13538
▁commande	-13539
▁démarrer	-13540
▁extrêmes	-13541
▁substant	-13542
▁démontrer	-13543
▁percevoir	-13544
▁strangers	-13545
▁terrorist	-13546
▁interviews	-13547
▁terrorists	-13548
▁treatments	-13549
▁assumptions	-13550
▁probability	-13551
▁catastrophes	-13552
▁construisons	-13553
▁traditionnel	-13554
▁informatiques	-13555
▁signification	-13556
▁reconstruction	-13557
▁technologiques	-13558
jac	-13559
oen	-13560
ctus	-13561
esus	-13562
idéo	-13563
ohol	-13564
▁203	-13565
▁Tib	-13566
▁cér	-13567
▁mai	-13568
▁pel	-13569
apers	-13570
ennis	-13571
illon	-13572
itime	-13573
▁Span	-13574
▁agit	-13575
▁east	-13576
▁juin	-13577
▁piét	-13578
▁rabb	-13579
amener	-13580
ifient	-13581
ouvant	-13582
▁2003,	-13583
▁Italy	-13584
▁Leurs	-13585
▁aesth	-13586
▁brave	-13587
▁codes	-13588
▁cruci	-13589
▁dépla	-13590
▁flows	-13591
▁proph	-13592
▁révol	-13593
▁scann	-13594
▁watts	-13595
absence	-13596
ustriel	-13597
▁adopté	-13598
▁agency	-13599
▁habits	-13600
▁landed	-13601
▁prouvé	-13602
▁stores	-13603
▁theore	-13604
▁transc	-13605
▁unités	-13606
▁écrans	-13607
▁élever	-13608
attaquer	-13609
▁October	-13610
▁analyze	-13611
▁articul	-13612
▁cousins	-13613
▁janvier	-13614
▁officer	-13615
▁reduced	-13616
▁sensory	-13617
▁sequenc	-13618
▁sisters	-13619
▁surpren	-13620
▁visiter	-13621
ertension	-13622
▁aircraft	-13623
▁autonome	-13624
▁aventure	-13625
▁barrière	-13626
▁concours	-13627
▁créative	-13628
▁matières	-13629
▁préférée	-13630
▁qualités	-13631
▁returned	-13632
▁émission	-13633
▁apprécier	-13634
▁calculate	-13635
▁daughters	-13636
▁intérieur	-13637
▁musulmans	-13638
▁parlaient	-13639
▁passerait	-13640
▁synthetic	-13641
▁universel	-13642
▁Pennsylvan	-13643
▁afterwards	-13644
▁conducteur	-13645
▁consistent	-13646
▁ridiculous	-13647
▁suggesting	-13648
▁gouvernance	-13649
▁moléculaire	-13650
▁volontaires	-13651
ao	-13652
pan	-13653
▁ED	-13654
▁EM	-13655
▁TK	-13656
hous	-13657
plan	-13658
▁Den	-13659
▁Leg	-13660
▁gad	-13661
▁lou	-13662
▁sév	-13663
allow	-13664
enter	-13665
oenix	-13666
écart	-13667
▁Tell	-13668
▁Walk	-13669
▁boun	-13670
▁jume	-13671
▁refr	-13672
▁sits	-13673
▁supr	-13674
▁toys	-13675
aimais	-13676
effort	-13677
iences	-13678
othing	-13679
▁Harry	-13680
▁Parmi	-13681
▁Video	-13682
▁chère	-13683
▁crâne	-13684
▁disag	-13685
▁edges	-13686
▁embau	-13687
▁exped	-13688
▁piles	-13689
▁spots	-13690
▁threw	-13691
▁tweet	-13692
appoint	-13693
attente	-13694
itables	-13695
ustrial	-13696
viously	-13697
▁Aucune	-13698
▁Joseph	-13699
▁adding	-13700
▁advers	-13701
▁analyt	-13702
▁anatom	-13703
▁breaks	-13704
▁concev	-13705
▁entrop	-13706
▁fluctu	-13707
▁galler	-13708
▁heaven	-13709
▁libres	-13710
▁passez	-13711
▁réunis	-13712
▁scores	-13713
▁témoin	-13714
▁écoute	-13715
Histoire	-13716
▁briefly	-13717
▁chapter	-13718
▁dioxyde	-13719
▁détruit	-13720
▁ethical	-13721
▁éthique	-13722
▁aveugles	-13723
▁biotechn	-13724
▁brillant	-13725
▁durables	-13726
▁educated	-13727
▁fabrique	-13728
▁facility	-13729
▁femelles	-13730
▁habitats	-13731
▁includes	-13732
▁poitrine	-13733
▁poursuiv	-13734
▁reminded	-13735
▁speakers	-13736
▁traversé	-13737
▁unlikely	-13738
▁étranger	-13739
ifiquement	-13740
▁aimerions	-13741
▁diagramme	-13742
▁elections	-13743
▁fragments	-13744
▁highlight	-13745
▁mentionné	-13746
▁musicians	-13747
▁paradigme	-13748
▁répondent	-13749
▁separated	-13750
▁ecosystems	-13751
▁hypothèses	-13752
▁puissantes	-13753
▁diapositive	-13754
▁electronics	-13755
▁predictions	-13756
▁commentaires	-13757
administration	-13758
▁intellectuelle	-13759
▁investissements	-13760
11	-13761
bru	-13762
▁SS	-13763
▁bâ	-13764
agen	-13765
lets	-13766
mage	-13767
onia	-13768
oudd	-13769
reur	-13770
wart	-13771
èvre	-13772
▁'60	-13773
▁Had	-13774
▁ger	-13775
▁hal	-13776
▁meu	-13777
accum	-13778
ernal	-13779
inons	-13780
itate	-13781
omper	-13782
outes	-13783
▁100%	-13784
▁Data	-13785
▁bats	-13786
▁conj	-13787
▁deme	-13788
▁exig	-13789
▁hipp	-13790
▁irre	-13791
▁issu	-13792
▁mate	-13793
▁mood	-13794
▁neat	-13795
▁pupp	-13796
▁vacu	-13797
▁wing	-13798
makers	-13799
▁2012,	-13800
▁March	-13801
▁Third	-13802
▁arrow	-13803
▁balls	-13804
▁clich	-13805
▁crain	-13806
▁punch	-13807
▁tribu	-13808
▁épuis	-13809
unclear	-13810
émotion	-13811
▁Banque	-13812
▁Columb	-13813
▁Jersey	-13814
▁Orient	-13815
▁Sierra	-13816
▁Within	-13817
▁brevet	-13818
▁conver	-13819
▁ensure	-13820
▁ethnic	-13821
▁faudra	-13822
▁feriez	-13823
▁fought	-13824
▁hautes	-13825
▁injury	-13826
▁merely	-13827
▁mienne	-13828
▁patron	-13829
▁pertes	-13830
▁sécher	-13831
▁Eastern	-13832
▁Whether	-13833
▁annoncé	-13834
▁branche	-13835
▁clavier	-13836
▁happier	-13837
▁occuper	-13838
▁préfère	-13839
▁pulling	-13840
▁pyramid	-13841
▁résumer	-13842
▁serions	-13843
▁évaluer	-13844
▁artistic	-13845
▁chapitre	-13846
▁contacts	-13847
▁crossing	-13848
▁croyance	-13849
▁cérébral	-13850
▁inattend	-13851
▁intégrer	-13852
▁mensonge	-13853
▁missions	-13854
▁primates	-13855
▁southern	-13856
▁vaisseau	-13857
▁voudrait	-13858
▁administr	-13859
▁frequency	-13860
▁kilomètre	-13861
application	-13862
▁catégories	-13863
▁conscients	-13864
▁determined	-13865
▁exceptions	-13866
▁inventions	-13867
▁operations	-13868
▁tranquille	-13869
▁chimpanzees	-13870
▁département	-13871
▁photographe	-13872
▁utilisation	-13873
▁biodiversity	-13874
▁remarquables	-13875
▁manifestation	-13876
aft	-13877
enz	-13878
oop	-13879
pox	-13880
sex	-13881
sum	-13882
ués	-13883
▁CM	-13884
▁JA	-13885
▁Sk	-13886
▁Wi	-13887
aver	-13888
igan	-13889
izon	-13890
rick	-13891
▁10%	-13892
▁185	-13893
▁70,	-13894
▁Kos	-13895
▁Nam	-13896
▁Put	-13897
▁Rad	-13898
▁adh	-13899
▁coc	-13900
▁rup	-13901
▁tur	-13902
▁tuy	-13903
allez	-13904
huile	-13905
oupes	-13906
ribly	-13907
stage	-13908
▁Camb	-13909
▁Norv	-13910
▁hill	-13911
▁mall	-13912
▁meal	-13913
▁mous	-13914
▁perç	-13915
▁pist	-13916
▁semi	-13917
effect	-13918
obiles	-13919
phabet	-13920
▁1990,	-13921
▁Camer	-13922
▁Cyrus	-13923
▁Organ	-13924
▁begun	-13925
▁blame	-13926
▁cruel	-13927
▁cryst	-13928
▁fiber	-13929
▁pione	-13930
▁pénét	-13931
▁quasi	-13932
▁reefs	-13933
▁seats	-13934
▁taper	-13935
alisées	-13936
clavage	-13937
élicopt	-13938
▁Mozart	-13939
▁Victor	-13940
▁actifs	-13941
▁bombes	-13942
▁conçus	-13943
▁decent	-13944
▁extrém	-13945
▁fibres	-13946
▁funded	-13947
▁intact	-13948
▁killer	-13949
▁murder	-13950
▁orbite	-13951
▁rarely	-13952
▁tribes	-13953
▁trompe	-13954
▁troupe	-13955
▁vallée	-13956
▁waters	-13957
Institut	-13958
apporter	-13959
explorer	-13960
émission	-13961
▁Leonard	-13962
▁entouré	-13963
▁failing	-13964
▁manager	-13965
▁menaces	-13966
▁normaux	-13967
▁primord	-13968
▁symbols	-13969
▁Ethiopia	-13970
▁Occident	-13971
▁Palestin	-13972
▁delivery	-13973
▁devenues	-13974
▁informed	-13975
▁marchait	-13976
▁origines	-13977
▁retourne	-13978
▁tragédie	-13979
▁évidente	-13980
▁expanding	-13981
▁hautement	-13982
▁migration	-13983
▁physicist	-13984
▁remercier	-13985
▁squelette	-13986
▁suggested	-13987
▁évènement	-13988
▁additional	-13989
▁biologists	-13990
▁continuons	-13991
▁connaissait	-13992
▁considérons	-13993
▁cybercrimin	-13994
▁journalists	-13995
▁photographer	-13996
▁grandchildren	-13997
▁travaillaient	-13998
▁internationaux	-13999
▁manifestations	-14000
▁traditionnelles	-14001
Can	-14002
dis	-14003
eks	-14004
▁38	-14005
▁Ky	-14006
aded	-14007
aphe	-14008
aska	-14009
avis	-14010
cool	-14011
entr	-14012
free	-14013
ials	-14014
iece	-14015
iled	-14016
izab	-14017
ulum	-14018
▁80,	-14019
▁FDA	-14020
▁Luc	-14021
▁Mid	-14022
▁oct	-14023
▁riz	-14024
going	-14025
mates	-14026
matic	-14027
reens	-14028
▁Dire	-14029
▁Doug	-14030
▁acid	-14031
▁bain	-14032
▁knee	-14033
▁soap	-14034
▁wise	-14035
adoles	-14036
approp	-14037
ighter	-14038
lihood	-14039
ocking	-14040
uganda	-14041
▁Jesus	-14042
▁caves	-14043
▁cliff	-14044
▁flour	-14045
▁holds	-14046
▁impos	-14047
▁manus	-14048
▁marin	-14049
▁realm	-14050
▁relie	-14051
▁sauve	-14052
▁scand	-14053
▁skept	-14054
▁vagin	-14055
▁voter	-14056
attaque	-14057
▁adjust	-14058
▁crédit	-14059
▁degrad	-14060
▁exprim	-14061
▁extend	-14062
▁genoux	-14063
▁partly	-14064
▁revers	-14065
▁rivers	-14066
▁élimin	-14067
▁College	-14068
▁aborder	-14069
▁budgets	-14070
▁camions	-14071
▁deserve	-14072
▁helpful	-14073
▁inutile	-14074
▁millenn	-14075
▁monnaie	-14076
▁relever	-14077
▁McDonald	-14078
▁conclude	-14079
▁financer	-14080
▁héritage	-14081
▁machiner	-14082
▁étranges	-14083
▁Australie	-14084
▁broadcast	-14085
▁cherchons	-14086
▁cérébrale	-14087
▁depressed	-14088
▁elephants	-14089
▁gratitude	-14090
▁immediate	-14091
▁organiser	-14092
▁provoquer	-14093
▁regardais	-14094
▁supported	-14095
▁transcend	-14096
▁conviction	-14097
▁extinction	-14098
▁patrimoine	-14099
▁underlying	-14100
amélioration	-14101
▁contraintes	-14102
▁photography	-14103
▁agriculteurs	-14104
▁experimental	-14105
▁fondamentaux	-14106
▁terriblement	-14107
▁contradiction	-14108
▁internationales	-14109
ga	-14110
Que	-14111
iro	-14112
mph	-14113
ova	-14114
pat	-14115
via	-14116
âts	-14117
▁BJ	-14118
When	-14119
ollo	-14120
oted	-14121
▁Esp	-14122
▁Hos	-14123
▁Ven	-14124
▁asc	-14125
▁pav	-14126
▁wed	-14127
▁wet	-14128
▁évo	-14129
adapt	-14130
arité	-14131
ommer	-14132
phere	-14133
▁Conf	-14134
▁Dick	-14135
▁labe	-14136
▁mant	-14137
▁pèse	-14138
▁tong	-14139
objets	-14140
ouvons	-14141
resser	-14142
▁2001,	-14143
▁Medic	-14144
▁actor	-14145
▁array	-14146
▁cable	-14147
▁citer	-14148
▁corde	-14149
▁créés	-14150
▁tenté	-14151
▁thumb	-14152
▁échec	-14153
lements	-14154
related	-14155
▁Arthur	-14156
▁Saturn	-14157
▁appels	-14158
▁copies	-14159
▁deviez	-14160
▁enthus	-14161
▁fermer	-14162
▁intime	-14163
▁omnipr	-14164
▁ramène	-14165
▁tackle	-14166
▁thresh	-14167
▁voyais	-14168
illusion	-14169
imagerie	-14170
▁Spanish	-14171
▁Through	-14172
▁bateaux	-14173
▁chauves	-14174
▁croyais	-14175
▁deviner	-14176
▁dépassé	-14177
▁exploit	-14178
▁formule	-14179
▁imagery	-14180
▁investi	-14181
▁shelter	-14182
▁sympath	-14183
espérance	-14184
invention	-14185
▁dépasser	-14186
▁figuring	-14187
▁récolter	-14188
▁sleeping	-14189
▁spéciale	-14190
▁épinière	-14191
▁Obviously	-14192
▁autorités	-14193
▁autrefois	-14194
▁cherchent	-14195
▁contribué	-14196
▁immeubles	-14197
▁parasites	-14198
▁passwords	-14199
▁predicted	-14200
▁virtuelle	-14201
▁chromosome	-14202
▁perfection	-14203
▁prédiction	-14204
▁reputation	-14205
▁translated	-14206
▁université	-14207
▁chromosomes	-14208
▁commerciaux	-14209
▁infirmières	-14210
▁individuelle	-14211
▁unbelievable	-14212
▁attentivement	-14213
▁interestingly	-14214
ES	-14215
IA	-14216
uct	-14217
▁%.	-14218
▁AG	-14219
▁AT	-14220
▁DP	-14221
Etat	-14222
astr	-14223
idém	-14224
mail	-14225
oeil	-14226
oper	-14227
phal	-14228
ylac	-14229
çoit	-14230
▁130	-14231
▁60,	-14232
▁Sin	-14233
▁Syl	-14234
▁ain	-14235
▁bos	-14236
▁kit	-14237
▁loy	-14238
▁voc	-14239
Afric	-14240
aterr	-14241
lable	-14242
mster	-14243
oules	-14244
shirt	-14245
▁Cath	-14246
▁Hist	-14247
▁Soud	-14248
▁anom	-14249
▁bags	-14250
▁bang	-14251
▁dysf	-14252
▁guér	-14253
▁harn	-14254
▁oeil	-14255
apeaux	-14256
cembre	-14257
envers	-14258
▁bonus	-14259
▁charm	-14260
▁crist	-14261
▁câble	-14262
▁demie	-14263
▁gains	-14264
▁label	-14265
▁miser	-14266
▁mixed	-14267
▁modes	-14268
▁noyau	-14269
▁obsol	-14270
▁puits	-14271
▁rêver	-14272
▁safer	-14273
▁shell	-14274
▁trail	-14275
▁vents	-14276
▁vôtre	-14277
cession	-14278
espèces	-14279
inverse	-14280
▁Norden	-14281
▁Quatre	-14282
▁accent	-14283
▁angles	-14284
▁bruits	-14285
▁caring	-14286
▁gamins	-14287
▁paires	-14288
▁panels	-14289
▁plaque	-14290
▁pursue	-14291
▁regime	-14292
▁trucks	-14293
individu	-14294
▁Beijing	-14295
▁Florida	-14296
▁Journal	-14297
▁Kennedy	-14298
▁Montana	-14299
▁accumul	-14300
▁diminué	-14301
▁elected	-14302
▁exister	-14303
▁farming	-14304
▁fastest	-14305
▁hormone	-14306
▁intrigu	-14307
▁lawyers	-14308
▁shocked	-14309
▁smarter	-14310
▁souffre	-14311
▁targets	-14312
▁variole	-14313
▁verrons	-14314
étudiants	-14315
▁Southern	-14316
▁cultiver	-14317
▁extended	-14318
▁imprimer	-14319
▁invested	-14320
▁laissons	-14321
▁managers	-14322
▁marchand	-14323
▁maîtrise	-14324
▁measures	-14325
▁throwing	-14326
▁triangle	-14327
▁abilities	-14328
▁boulevers	-14329
▁collectif	-14330
▁habitudes	-14331
▁prisoners	-14332
▁radically	-14333
▁sentences	-14334
▁teenagers	-14335
▁tentative	-14336
▁commençait	-14337
▁comparable	-14338
▁compliquée	-14339
▁inégalités	-14340
▁magnétique	-14341
▁mysterious	-14342
▁commentaire	-14343
▁vulnérables	-14344
▁globalization	-14345
▁significantly	-14346
▁mondialisation	-14347
▁progressivement	-14348
"?	-14349
CH	-14350
dé	-14351
Art	-14352
cod	-14353
hot	-14354
jou	-14355
lib	-14356
reh	-14357
sur	-14358
▁7,	-14359
▁JC	-14360
Mais	-14361
asty	-14362
aude	-14363
cére	-14364
fold	-14365
list	-14366
made	-14367
onge	-14368
robi	-14369
vant	-14370
èles	-14371
▁Arm	-14372
▁pac	-14373
arios	-14374
escal	-14375
iseur	-14376
odeur	-14377
umeur	-14378
▁Give	-14379
▁Lang	-14380
▁Plan	-14381
▁Wind	-14382
▁beet	-14383
▁cats	-14384
▁dies	-14385
▁dégo	-14386
▁fins	-14387
▁narc	-14388
▁négl	-14389
▁prud	-14390
▁tuna	-14391
▁tués	-14392
▁volé	-14393
cember	-14394
ducing	-14395
ustice	-14396
ytocin	-14397
▁Court	-14398
▁Dites	-14399
▁Kosov	-14400
▁Pitts	-14401
▁algae	-14402
▁bears	-14403
▁chats	-14404
▁chrét	-14405
▁mutil	-14406
▁owner	-14407
▁pomme	-14408
▁prose	-14409
▁reson	-14410
▁schém	-14411
▁symph	-14412
▁tribe	-14413
▁viral	-14414
ajouter	-14415
aticien	-14416
oublier	-14417
étoiles	-14418
▁bother	-14419
▁cataly	-14420
▁courts	-14421
▁domain	-14422
▁effond	-14423
▁linear	-14424
▁millén	-14425
▁modest	-14426
▁nommée	-14427
▁pertin	-14428
▁pigeon	-14429
▁prosth	-14430
▁shaped	-14431
▁shrink	-14432
▁temple	-14433
▁échecs	-14434
auraient	-14435
▁adopter	-14436
▁adorent	-14437
▁cancére	-14438
▁chemins	-14439
▁comptes	-14440
▁deliber	-14441
▁devoirs	-14442
▁disgust	-14443
▁dossier	-14444
▁emerged	-14445
▁females	-14446
▁founded	-14447
▁segment	-14448
▁soldier	-14449
▁trivial	-14450
▁wheelch	-14451
ependence	-14452
▁answered	-14453
▁arrivera	-14454
▁atteints	-14455
▁category	-14456
▁contents	-14457
▁culturel	-14458
▁dinosaur	-14459
▁enceinte	-14460
▁entraîne	-14461
▁proposed	-14462
▁précieux	-14463
▁tournant	-14464
▁gathering	-14465
▁gradually	-14466
▁illusions	-14467
▁incapable	-14468
▁semblable	-14469
▁éléphants	-14470
▁disappoint	-14471
▁développée	-14472
▁hypothesis	-14473
▁inevitable	-14474
▁rencontrés	-14475
▁astonishing	-14476
▁automatique	-14477
▁constructed	-14478
▁grandissent	-14479
▁immunitaire	-14480
▁schizophren	-14481
▁écosystèmes	-14482
▁étonnamment	-14483
▁températures	-14484
▁divertissement	-14485
-2	-14486
OC	-14487
Re	-14488
jo	-14489
ses	-14490
▁ub	-14491
asso	-14492
atie	-14493
etti	-14494
igné	-14495
romp	-14496
uate	-14497
▁140	-14498
▁Nav	-14499
▁ere	-14500
▁sir	-14501
agées	-14502
apeur	-14503
clock	-14504
otton	-14505
élium	-14506
▁Cuba	-14507
▁Free	-14508
▁Lord	-14509
▁Pete	-14510
▁Temp	-14511
▁paie	-14512
▁roue	-14513
▁thon	-14514
humain	-14515
▁Build	-14516
▁Linux	-14517
▁Quels	-14518
▁Stone	-14519
▁Tunis	-14520
▁adéqu	-14521
▁elite	-14522
▁ferai	-14523
▁filtr	-14524
▁inond	-14525
▁léger	-14526
▁maire	-14527
▁mangé	-14528
▁roman	-14529
▁tends	-14530
▁wider	-14531
enfance	-14532
▁algues	-14533
▁ambigu	-14534
▁assess	-14535
▁astéro	-14536
▁attiré	-14537
▁curric	-14538
▁grille	-14539
▁jouant	-14540
▁organe	-14541
▁parven	-14542
▁slogan	-14543
▁soirée	-14544
▁strict	-14545
▁widely	-14546
ènements	-14547
▁Floride	-14548
▁apprise	-14549
▁cercles	-14550
▁chaînes	-14551
▁examiné	-14552
▁informe	-14553
▁involve	-14554
▁multipl	-14555
▁neurone	-14556
▁ressens	-14557
▁réelles	-14558
▁threats	-14559
▁tombent	-14560
▁urbaine	-14561
urrection	-14562
▁Business	-14563
▁December	-14564
▁associés	-14565
▁choosing	-14566
▁climbing	-14567
▁décharge	-14568
▁enseigné	-14569
▁entering	-14570
▁habitués	-14571
▁musicale	-14572
▁refriger	-14573
▁smallpox	-14574
équipement	-14575
▁adventure	-14576
▁brillants	-14577
▁introduit	-14578
▁permettra	-14579
▁primarily	-14580
▁regardait	-14581
▁acceptable	-14582
▁dictionary	-14583
▁centimètres	-14584
▁indépendant	-14585
▁intrinsèque	-14586
▁proviennent	-14587
▁tremblement	-14588
▁capabilities	-14589
▁connectivity	-14590
▁spécialistes	-14591
▁susceptibles	-14592
▁fondamentales	-14593
St	-14594
100	-14595
oor	-14596
wis	-14597
▁43	-14598
▁MS	-14599
Isra	-14600
chem	-14601
tell	-14602
velt	-14603
writ	-14604
▁Eve	-14605
▁épr	-14606
abled	-14607
adays	-14608
aired	-14609
allas	-14610
amène	-14611
exerc	-14612
isait	-14613
oscop	-14614
usine	-14615
érées	-14616
▁2010	-14617
▁Abed	-14618
▁Cinq	-14619
▁None	-14620
▁bion	-14621
▁craw	-14622
▁fans	-14623
▁lock	-14624
emment	-14625
estion	-14626
gments	-14627
▁2010.	-14628
▁Greek	-14629
▁album	-14630
▁burst	-14631
▁insul	-14632
▁jelly	-14633
▁presc	-14634
▁pride	-14635
▁scept	-14636
▁spray	-14637
accompl	-14638
install	-14639
échange	-14640
▁Centre	-14641
▁During	-14642
▁Hubble	-14643
▁Lester	-14644
▁Mother	-14645
▁Sahara	-14646
▁Soviet	-14647
▁connus	-14648
▁câbles	-14649
▁fourmi	-14650
▁pardon	-14651
▁polici	-14652
▁pommes	-14653
▁soigne	-14654
▁sortis	-14655
▁thrill	-14656
▁vacuum	-14657
▁viable	-14658
iculture	-14659
▁Develop	-14660
▁affects	-14661
▁agences	-14662
▁alcohol	-14663
▁cascade	-14664
▁colonne	-14665
▁corpore	-14666
▁croyait	-14667
▁fabriqu	-14668
▁frapper	-14669
▁grottes	-14670
▁horizon	-14671
▁imaging	-14672
▁magical	-14673
▁recette	-14674
▁roulant	-14675
▁superst	-14676
▁traduit	-14677
▁transit	-14678
attendais	-14679
▁commença	-14680
▁comptent	-14681
▁familial	-14682
▁familier	-14683
▁leverage	-14684
▁logement	-14685
▁positifs	-14686
▁priorité	-14687
▁radicale	-14688
▁transmis	-14689
▁éducatif	-14690
▁attitudes	-14691
▁cinquième	-14692
▁collecter	-14693
▁forgotten	-14694
▁investors	-14695
▁recommend	-14696
▁disability	-14697
▁explaining	-14698
▁frustrated	-14699
▁graphiques	-14700
▁improbable	-14701
▁phénomènes	-14702
▁promouvoir	-14703
▁resilience	-14704
▁américaines	-14705
▁appartement	-14706
▁concepteurs	-14707
▁connectivité	-14708
▁experiencing	-14709
▁successfully	-14710
▁surprisingly	-14711
▁constructions	-14712
▁demonstration	-14713
▁désespérément	-14714
▁professionals	-14715
▁psychologique	-14716
▁mathématiciens	-14717
aze	-14718
isp	-14719
upp	-14720
Cola	-14721
alks	-14722
half	-14723
inth	-14724
çait	-14725
▁'70	-14726
▁IBM	-14727
▁Und	-14728
▁ira	-14729
▁pes	-14730
▁sle	-14731
▁égo	-14732
berry	-14733
enous	-14734
herbe	-14735
inger	-14736
itage	-14737
liest	-14738
▁2008	-14739
▁Bosn	-14740
▁Pays	-14741
▁asks	-14742
▁exha	-14743
▁impr	-14744
▁meur	-14745
▁pâte	-14746
▁rice	-14747
hypoth	-14748
iament	-14749
soever	-14750
ussani	-14751
▁Larry	-14752
▁Phili	-14753
▁Trade	-14754
▁allum	-14755
▁empir	-14756
▁hemis	-14757
▁incar	-14758
[...]
